/**
  ******************************************************************************
  * @file    network_data_params.c
  * @author  AST Embedded Analytics Research Platform
  * @date    2026-06-22T23:15:35+0800
  * @brief   AI Tool Automatic Code Generator for Embedded NN computing
  ******************************************************************************
  * Copyright (c) 2026 STMicroelectronics.
  * All rights reserved.
  *
  * This software is licensed under terms that can be found in the LICENSE file
  * in the root directory of this software component.
  * If no LICENSE file comes with this software, it is provided AS-IS.
  ******************************************************************************
  */

#include "network_data_params.h"


/**  Activations Section  ****************************************************/
ai_handle g_network_activations_table[1 + 2] = {
  AI_HANDLE_PTR(AI_MAGIC_MARKER),
  AI_HANDLE_PTR(NULL),
  AI_HANDLE_PTR(AI_MAGIC_MARKER),
};




/**  Weights Section  ********************************************************/
AI_ALIGNED(32)
const ai_u64 s_network_weights_array_u64[26232] = {
  0x3e6121a03ee73dd1U, 0x3ef4e4c6bee04b70U, 0xbef1090ebdee2b1fU, 0xbdd9a44b3dcd57e2U,
  0x3e6cc9c7be274b68U, 0xbe2975253e23dc33U, 0x3e190184be360c61U, 0x3e7b10103e48a809U,
  0x3e9cf0f23dc2b8deU, 0xbec48c6bbed84687U, 0x3e3c968f3dc1ebefU, 0xbde01799be390a94U,
  0x3db74b2e3ebafc2bU, 0x3ed8f1e4bc27f421U, 0xbeeabbc83bef338dU, 0xbe058bff3e9620d6U,
  0x3e8ab7edbe53ef78U, 0xbe0670e0be274f2fU, 0x3ee2e756bd9ed0daU, 0x3e4124adbe3c3e91U,
  0x3ecd412c3ea145a2U, 0x3e83e1adbea7e5bdU, 0x3e808f973eae0fd4U, 0x3e9782693e0589e5U,
  0xbdc8c602bd724f70U, 0xbe102c2a3d34ee93U, 0x3e9726603e8d6aedU, 0x3dff15e63ed013a4U,
  0xbca4fa2a3eaaca58U, 0x3e30f05f3e8a722aU, 0x3c8cb86e3e7fa6adU, 0xbd8449df3e75a38eU,
  0xbddfbdd83e4b3c8cU, 0x3e6adbcf3ed3df27U, 0x3e9d9cf13b1e03c5U, 0x3eb3d67a3e7ea6a6U,
  0xb9c3e481bc2461b5U, 0x3c3680ee3cc095bfU, 0x3c2f07c3bb46e6c8U, 0x3b07a666ba911704U,
  0x3e135ab03e8c124eU, 0xbc90eda53e59cadeU, 0x3e1cbe6a3db79aa3U, 0x3d3b39d93de206ebU,
  0xbd44ea0f3d0e9cf5U, 0x3e14c497bde79f4eU, 0x3dbe82fabd3cd356U, 0x3e2954dfbd97b733U,
  0xbdd8f3353e885afaU, 0x3d73bab6be0a80c7U, 0x3df190c83ce6856fU, 0x3e611012bb4b22e5U,
  0x3dbb9b9f3d8d5d02U, 0xbd6316aebcbec45bU, 0x3e0fcf443da5b2edU, 0x3e39182f3d310635U,
  0x3d793add3d1b6dbdU, 0x3ea8c8e63e274e92U, 0x3e1b5a473e6a59a8U, 0xbdb8f8d93d3371a7U,
  0x3e30112dbd50c73bU, 0x3e1f9185bde0f413U, 0x3c43c4ebbcb0431aU, 0x3e483fba3d7b5452U,
  0xbdc3dcad3c903f9dU, 0xbe2ebb163df017aeU, 0x3e52cdf7bdb321f9U, 0x3ce28140bd82640fU,
  0x3e6252a93c13aeccU, 0xbc23e02cbdb84a31U, 0x3e1fb7f83dfec692U, 0x3e241b123dfb67b7U,
  0xbd154cf3bd8ee6bcU, 0x3dd6066e3e1ce5c2U, 0xbd9c021f3ced4796U, 0x3ccb9c95bdb0c63eU,
  0x3eb4227fbcd02f44U, 0xbe4c4f133ed2e6e3U, 0x3e0a32c93e6795deU, 0x3eaee3ad3db9f241U,
  0x3e11f67cbdc25b7bU, 0x3d46348c3eabd4e5U, 0x3e017bb03e3c80ebU, 0x3e35819b3cdb3cafU,
  0x3d8835dfbe183946U, 0xbc6799833ea38727U, 0xbcecc43fbe0b2b92U, 0x3e48e327bb71a0a7U,
  0x3c266a183e022d2bU, 0xbdf362ddbcb45383U, 0x3e9db55d3d89bb53U, 0xbd433e5c3df8e8e7U,
  0x3e877cc9bd89c6c1U, 0xbd379fe3bdd430a4U, 0x3e0b68ef3e956776U, 0x3d8d110e3e2fd2e5U,
  0x3e7b8f07be08e1cfU, 0xbd8fc0c03e67e56eU, 0x3e47b1563c0ac900U, 0x3e8410bc3d256b0fU,
  0xbe997585bea81e9cU, 0xbdd9fe623d3b3d83U, 0xbdb5eb97be72b2f8U, 0xbe82aa20bea74db2U,
  0xbeacaeabbee9a3b1U, 0xbec157a33dbc9237U, 0x3d3d3032beba206fU, 0xbe17a5cebe33b5dbU,
  0x3c0dab52be22250bU, 0xbe9ef3aebd52b6acU, 0x3da84dffbd216e4fU, 0xbe8a147e3dd35af3U,
  0xbce283e43eb9f7d0U, 0x3ea80164bd8cb37dU, 0x3e48f9cf3d964b92U, 0xbcb486793e318960U,
  0xbda670c03e31952dU, 0x3e91de9e3c87629aU, 0xbe10987ebe2f7139U, 0x3c15fa89bddcf683U,
  0x3e6f1776bdb04a84U, 0xbd34532dbd36d9a2U, 0x3d346bf83d6d03f3U, 0x3d7a78ebbd830a24U,
  0x3e449b3e3d45401bU, 0x3e372361be133d56U, 0xbdb464b6bd873a8dU, 0x3e0e1637bdf5c3e8U,
  0xbe6e4f09be3965c3U, 0x3e3008dfbc92b3aaU, 0xbd97b373be161e2eU, 0x3d959f15be1891a5U,
  0x3e1701eebe4c5ed3U, 0xbd2ed5ac3e102387U, 0x3e82bc163da511d8U, 0xbdbac96f3e6f3981U,
  0x3d915c053df64bf6U, 0x3e21025abd9724c5U, 0x3c39cc31be1db4d6U, 0xbc0bc11abe036059U,
  0xbe19633a3aa360bcU, 0x3d87bf8d3e4c3876U, 0x3d1760f1bda956f3U, 0xbd2bfd0cbe75c5f7U,
  0x3d2b0be6be52cac2U, 0xbd38d6a5bb59177bU, 0xbbc6618d3cdc3d07U, 0xbe5fb632bd2066d3U,
  0x3ddda1bf3e00dbaaU, 0x3d9b9ac3bdf056a5U, 0x3e4acb193ba35367U, 0x3e328cdb3e222009U,
  0xbda9fdb93d207cf8U, 0xbd906e6c3e2d5926U, 0x3c789a773e35efa4U, 0x3e60da713dbb78e7U,
  0x3e3d9a06bd2680dcU, 0x3bf20d9a3da71828U, 0xbc88ed3ebe160d94U, 0x3e4c214dbce668f9U,
  0xbd9771943d9cc416U, 0xbd8c83023dad2f14U, 0x3de32de53deb56dcU, 0xbda132253ddcc338U,
  0x3df87f12bd7579d4U, 0xbe6f71063e031c81U, 0x3cef260a3d0b56eaU, 0x3e49d6fd3e1f4106U,
  0x3d696b38be940844U, 0xbdc2c2b73edbf1a3U, 0xbd28e8413e4d1012U, 0x3d2b797b3caf9d87U,
  0x3dcd59cbbe8c2678U, 0xbdd4f3813e6ea649U, 0xbe04d0a23db6c0f7U, 0xbd3dc971be39ebf2U,
  0xbc861f2ebe3cbea3U, 0xbd4debd63ec41fb8U, 0xbd6009233d6eddd4U, 0xbe4880183d41e40eU,
  0x3d66f23d3dd625acU, 0x3d032c863e60a9e4U, 0x3e5776723e80f64dU, 0xbde5e7113e0e8b84U,
  0x3e3cd4aa3e916cebU, 0x3e9d1fa9be5c28a9U, 0x3e1f13ff3e6c533aU, 0xbd0786fc3ded69bdU,
  0x3cdb6651bb8d8eefU, 0x3d3f83663e56a8beU, 0x3c602c223d4785b0U, 0xbe2bd4aabdee1ebbU,
  0xbdead7bbbe405167U, 0xbccdf1403e2613a8U, 0xbd2c95b73d33daf4U, 0xbdb3db313d8a52d1U,
  0x3e86935b3e7b3d0eU, 0x3d9a4fea3e511cfaU, 0xbdad1b0e3d42c639U, 0xbc42e8423df863caU,
  0x3e4fc4503e2f2c37U, 0xbd64966b3e8a92f3U, 0x3e1442a0bd2052ddU, 0x3db2f28e3c47d542U,
  0x3e42d9f93da0db2fU, 0xbe142d703eb506f2U, 0xbde68bbabd540247U, 0x3e1340143d0af813U,
  0xbded01b13d9e1a02U, 0xbe5fac033e50065aU, 0x3ddd7bdc3e617952U, 0xbd657b9b3dadc4c7U,
  0x3e851860bd709b56U, 0x3cbb705c3d4c7e78U, 0xbccfe4aa3e7b90d2U, 0xbd97b9723d84fb20U,
  0x3dd757483e19f791U, 0x3e1264f23d9f8dceU, 0x3e1952ac3e795cf0U, 0x3cce5fd03d1ff8a0U,
  0x3bf29dc6be72f2f3U, 0xbd89d312be30802eU, 0xbdb917f6be5bac00U, 0xbd93bc5cbddccbfaU,
  0x3e1481923deab9d7U, 0xbcf6e3183d5aa123U, 0x3e5974d93df4e7cfU, 0xbd41b0a33dd467edU,
  0x3df2217e3e5c99b4U, 0x3e232785be391381U, 0xbd957da93e391382U, 0x3dc212d73e363339U,
  0xbe87e279be8ac480U, 0xbd46b59b3c03fd16U, 0x3bc9e905be422b95U, 0xbe9128c1be665624U,
  0xbd72ed61bbdbd655U, 0xbadfdd0fbdbd0e3eU, 0xbd6f10c3bd4561b3U, 0xbcd8b8303df51ee1U,
  0x3cb39025bd60015cU, 0x3e46fdc23c443538U, 0xbdac6a043d537eddU, 0x3e76a6413cc151eeU,
  0xbe0bd841bea408dfU, 0xbe23cd0a3d7a2de1U, 0xbdd9df7ebdec2aedU, 0x3dfdc003bdfe6e96U,
  0x3e224998be3a8e9cU, 0xbdeffeeb3d4977cfU, 0x3d8e4d383de9d254U, 0x3e2d601dbda2518aU,
  0x3d57ea9f3dcb0876U, 0xbdadc8493d73e33bU, 0x3ce51e71bca55787U, 0x3e735a543d8c41e1U,
  0x3e39def53e06ae7dU, 0x3e189e443c8d6727U, 0x3c0f00553e9853d3U, 0x3e00bed83e0ba7c0U,
  0x3e08cca73cf667faU, 0x3df1a00f3e3491aeU, 0xbdb2851ebdf562c6U, 0x3e54635f3c3f24d3U,
  0xbdcde194be13d56dU, 0xbe2715db3e0f2a0dU, 0xbe4593d6be847a02U, 0x3d21cb42be1d78adU,
  0x3e7998eebe2daffaU, 0xbc6607cb3e6035a6U, 0x3e55f9203d513a06U, 0xbc832d9d3e05677fU,
  0x3dee932ebda612a2U, 0xbe479bfa3ea55a0cU, 0x3d92a3e63e8cc923U, 0xbd25fb753d7d46a5U,
  0xbd895ca0be5773a1U, 0x3d9815403e90b124U, 0x3daedf9c3d7842f8U, 0x3c8b55523cc54786U,
  0x3e43c4e63dbd5fedU, 0xbe3c258d3b8d5ae7U, 0x3e20db9bbe152cecU, 0x3e33ef2dbcb2f23bU,
  0x3e6ad098be3b0fbfU, 0xbd914a6a3de0ce4bU, 0x3e3fbd083e39c72bU, 0x3e351aaf3de3ff04U,
  0x3e0713e73e0e7cacU, 0x3d815bf23d9bd159U, 0x3dddcf0a3e7da7ccU, 0x3e20e9613e09f3cdU,
  0x3e129dcbbd1ee4b4U, 0x3daa1193bebff49bU, 0x3e327b183db8f168U, 0xbdf2b005bbae3bd0U,
  0xbde633fe3e621768U, 0x3e875815be17136dU, 0xbdda09443e4bd49aU, 0xbbd09ffa3def5d77U,
  0xbd9711d73e6f7f23U, 0x3e9c2803bed25478U, 0xbe13a795be3ba859U, 0xbe445aeabc4b0d68U,
  0x3dd39c1d3e3d040fU, 0x3cf5a1babe840d51U, 0x3da7e5873c0cc30dU, 0x3cc737843de1167eU,
  0x3e4da60c3cd33262U, 0x3e331ce3be4cfc09U, 0x3e453b48bce6e68dU, 0x3e26b9f93e82784aU,
  0x3e641c60be2b57fdU, 0xbdf47f17be6d6d63U, 0x3e01c5903e05d820U, 0x3e253dd3bd5b5f4aU,
  0x3e1c1c1f3e747f06U, 0x3e8b9febbe282056U, 0x3e650ca73e1d1ee0U, 0x3dfe6072bd4c1e4cU,
  0x3dabdbadbc71d40eU, 0x3e8ddba6be8e0f93U, 0x3d8190fcbdb35fb5U, 0x3be861623de9ede0U,
  0xbd09bbd8be5a3012U, 0xbd01171e3ca299beU, 0x3d64c38a3e53123cU, 0xbdb161b43cee532cU,
  0x3e1608b9be46fd03U, 0xbce9ec383bb3f18bU, 0x3d70df30bdb4d8f1U, 0x3e138bd93e4ef450U,
  0x3d9d6ff8be712a71U, 0xbd9063e53e445a1eU, 0xbda1bb1c3d1ff0dfU, 0xbd37a2e63e0e167fU,
  0x3dc40e4fbdf52fc7U, 0xbd9842943b9a658fU, 0x3e3724043b53cb14U, 0xbda5825bb9a42364U,
  0x3de88a52bdcae812U, 0xbd973d093e7caddbU, 0x3e47ad193db595a1U, 0x3e5eb6563e0320cbU,
  0x3cbf1260bd3cd055U, 0xbeb059c93e83a298U, 0x3e1eed383c85cb61U, 0x3e46656b3d26e4a6U,
  0x3c81ceebbdc2c8c8U, 0xbe9f2b693de054e0U, 0xbbd9fcb13d2b6bcdU, 0x3e8f0ffc3d80eef6U,
  0x3e0277dfbcd5d400U, 0xbe06a0373d753810U, 0x3e220e35bdb44264U, 0xbe255b4d3de47c36U,
  0x3c01b244be865734U, 0xbe8ad2dbbe171c38U, 0x3d569369bcb97558U, 0x3de2c88b3e65fec5U,
  0x3e2ec9023d9d39e9U, 0xbe742bf8bd9bc1eaU, 0x3e5d1a20be02ba5eU, 0xbde8abc53e68c8fdU,
  0x3dbbe5e7be54741eU, 0x3d6434b9bd0b5f3fU, 0xbdcaa11cbd612969U, 0xbe2b3ed6be1b40feU,
  0x3e339bf3bdc23db7U, 0xbcb70b74bdba5438U, 0xbca504313da8cfffU, 0xbda661aa3e175200U,
  0xbd9e0f683ea6abcaU, 0x3e60d919bebfc650U, 0x3e596eec3e13f968U, 0x3df641363e528959U,
  0x3cbd46733d980519U, 0xbe89ab8e3d9423dfU, 0x3e4f6ff2bdf6c5a8U, 0x3daab2a5bc68c499U,
  0xbd0822963e89388eU, 0x3eb3de7abe940bf8U, 0x3e74df223e04d2ccU, 0x3e39e9853d4357a5U,
  0x3d8b2b363e9f0e34U, 0x3e90ca8fbe8201b0U, 0x3d08d839bd086703U, 0x3e42a3cf3e133a94U,
  0x3d8a22fe3e94b8cbU, 0x3d9838ccbe91bdcaU, 0x3e5c501dbc720200U, 0xbb8c58e03e5513adU,
  0x3e072dfb3df6f0fbU, 0x3eb3d8c6bc85b5f5U, 0x3de6af9cbc33b6a2U, 0x3e111c773e4e86bfU,
  0x3d43a58f3d80f416U, 0x3dcb0f5b3dcca32cU, 0x3e1f73ee3e3aab2fU, 0xbdfdf65d3c2e1f67U,
  0xbdec6f26be6fce60U, 0xbda7720a3c9b4335U, 0xbe1c27b9bca88dc1U, 0xbe08c2a1be583d95U,
  0x3d8714eabea0e67bU, 0xbe08f8093e538f10U, 0x3cd958bcbba1e9e1U, 0xbe33a275bd599deeU,
  0x3dec56b03d59efc0U, 0x3d953ca43deb365fU, 0x3dda4a933e9869acU, 0x3e2c22593e491020U,
  0xbe553211be1cfda5U, 0xbe5b3ff93e36b41cU, 0xbe80084fbe363124U, 0x3c32ac14be836db8U,
  0xbd999c9dbed32df3U, 0xbe0a7b89bd8eb6d6U, 0xbd5f7bf4be14102dU, 0xbe9672adbd9faaccU,
  0x3d6b43f5be516b63U, 0xbe3a52b7be139987U, 0x3d4e24443e3b0cccU, 0xbdb85f5fbd839288U,
  0x3dc376563e5cdcf0U, 0xbac0a3313eb78ac9U, 0x3e0c5f47bd97f4d9U, 0x3e6a63093ddf09b1U,
  0x3ccf797cbe96d3f9U, 0xbe2b71853e4777e4U, 0x3df708ab3d3dfdd5U, 0x3e1fd1c9bcee1211U,
  0x3e0707e3bdbf36dcU, 0xbe181a173d10bf80U, 0x3e4b6c6dbdbb807fU, 0x3e6b05053dfe8318U,
  0xbe0347243c64f25fU, 0xbc7e016c3e26c652U, 0x3e6f9c963e23f372U, 0xbe3f57623d168864U,
  0x3d30b56c3e56a98fU, 0x3eb436173e35b6adU, 0xbbefd0573e2f6c2eU, 0x3d4f95733e66b0e6U,
  0x3dffc3b43e055b1fU, 0x3ecf61553e045f10U, 0x3d40d2e23e5df039U, 0x3db0ee293dfa1f0eU,
  0xbec5c106be8adee6U, 0xbe68da713ded05daU, 0xbe8760babe89b898U, 0xbe4f4ce0bea32b39U,
  0xbe4aca41be35fadcU, 0xbdd7cb7fbd793d4dU, 0xbe04b3893e1ac2e4U, 0xbe46194e3de84bc3U,
  0xbd448ace3eb4ddd8U, 0x3e604355bcbfa30fU, 0xbdb4fbb93e6a49feU, 0xbda68919bd506cceU,
  0xbe3789bfbe3e3df1U, 0xbe01124dbdd4da93U, 0xbe14d22dbe9dde78U, 0xbe4fcb94bda80e00U,
  0x3e49e835be00c14eU, 0xbe35c889bd489692U, 0x3de9fb14bd83011dU, 0x3c746ff8bdd9bc2cU,
  0x3e14ea533e80b827U, 0x3cf4fef8be09f3a2U, 0x3e6d5adabcc4267bU, 0x3e3d7bc43e7089faU,
  0x3dcc2463bd3ec62aU, 0xbc7f75113e3504ceU, 0xbdc312b33e3b350fU, 0x3e4f5bdd3d1892f0U,
  0x3e2a6582bc76af6fU, 0xbe0af1993ea2b3baU, 0x3dc21ed03d9e7bd7U, 0x3e3bef263cd12b82U,
  0x3e15c47d3cdeb1f6U, 0xbe502f113e0abc00U, 0x39de255e3de55970U, 0xbc848c123e38936cU,
  0xbd1aac30be3798faU, 0xbe4121113c73fe13U, 0x3e2edec93d800314U, 0x3cd61665bd093e40U,
  0x3de560713cb79978U, 0x3e0b89ce3e8172e1U, 0x3de6f7473e1c17bfU, 0x3d482d363e2488eaU,
  0x3e173abdbd578150U, 0x3d43257a3dc545ebU, 0xbdd67740bd0bead1U, 0xbddfc4943e37b704U,
  0x3ce196b0bdddd410U, 0xbe128ecc3e1b927eU, 0x3e5c5f89bdfa6300U, 0xbe274b683d513516U,
  0x3dfbbb403dc8164fU, 0x3e8afb233e13f2f0U, 0xbdc15afd3e4fe81bU, 0x3d25e1843e6c2102U,
  0xbe171a923e4ef70cU, 0x3e9459383ead53eeU, 0xbe376b32be4331ffU, 0x3da6858cbd45f0c2U,
  0xbdc5aee03e09cf8aU, 0xbbcf5b2d3e3165c7U, 0x3c87619ebe7817c6U, 0xbe8a65e9be83af81U,
  0xbd1cf37a3e743064U, 0x3e458236be7bcd8dU, 0x3d1223ccbc88b370U, 0xbdf2bbf63d28fdd2U,
  0x3e4ff0883d952902U, 0x3df4af8abe025a96U, 0xbd1cf9d23d028977U, 0x3e4bd6043cda9869U,
  0xbe1e53813dce0962U, 0x3e0184b53e25581dU, 0xbe25ae2abe1f8313U, 0x3d84df383c96552cU,
  0xbdeaf404bcd05983U, 0xbd7e8fb2beb3bb73U, 0x3e061f7f3e340962U, 0x3d33233dbd2ed6acU,
  0x3d116d3e3dd8b220U, 0x3e4a365c3d936f46U, 0xbb79c3633980ef63U, 0x3e0e1b163e768f67U,
  0x3e3e5d1bbd65d638U, 0xbd4aa6b9bd8d2facU, 0x3e28db733d6dc526U, 0x3ccb58633deaa9eaU,
  0x3e4c089e3dd2dfceU, 0x3e8da3cf3c8abe0fU, 0x3d977bbd3e084a3cU, 0xbd00f9863dd23c33U,
  0xbd754ade3e5d141dU, 0x3e8a4dc4be2ab0b8U, 0xbdcceae8bddf697fU, 0x3e627cdd3df88256U,
  0x3d544213be4e771cU, 0xbeac77843ceebdceU, 0x3cfdf94c3db23a6fU, 0x3e06745ebd856b4bU,
  0x3e29a0d5be2fd228U, 0xbe5733653ebf7778U, 0x3d79c4d6bcf8dfebU, 0x3e49548b3cb58888U,
  0xbcd21d59bdcfeb3dU, 0x3dab67c53e9d7a71U, 0x3dd9f1dc3d84583cU, 0x3e23a5c73cd1ac40U,
  0xbc90be6f3cc4978dU, 0x3dfa87293e9ffef9U, 0x3e3fa5a5be016e3bU, 0xbdf404e93e4ff2b1U,
  0xbd56127fbdd7f8e9U, 0xbe26734abd1c8db8U, 0x3e1cf1a13dc86b69U, 0xbe2e47bcbda8d5c4U,
  0x3d20bf24be54280fU, 0xbd3e60ea3eadb5ffU, 0x3d47afdc3e6f18eeU, 0x3c49ebcb3df3275aU,
  0xbe50436c3da363e4U, 0x3e568e853eea6e8fU, 0xbe77c5cfbd166b4dU, 0x3d0b4eaabd9f1205U,
  0x3c55fadbbd744b52U, 0x3da8dacb3d52d92eU, 0x3df1d0013e1b822aU, 0xbe7024c8be507f81U,
  0x3e3275d2bd975a34U, 0xbd435aeb3ea73d60U, 0xbc25be27bcf0d543U, 0x3da1ff033d8a3892U,
  0xbca4c4d5beb09728U, 0xbde4e34a3e0d6ad7U, 0xbe57f08cbecdae29U, 0x3d36f900be30c440U,
  0xbe27d253bec66c47U, 0xbddcc6cf3e56ee21U, 0xbdd3c6c4bedf3074U, 0xbe2fd0f4beb274f3U,
  0xbe8df755be71c1d2U, 0xbe8a8a1f3dd08594U, 0xbdfcd2cbbe851e64U, 0xbe88daf2be4b86a9U,
  0x3ebdcaa5be85796cU, 0xbe5569073e705bf7U, 0x3e0d88ef3de7a17fU, 0x3e42eb383d5a3e87U,
  0x3d86249dbecbf9e0U, 0xbe4d4ca63ebdd7b8U, 0x3de99ff33ba4ffa7U, 0x3e91185d3e287658U,
  0x3daa1ed7beb0005fU, 0xbde5f4523ef2a207U, 0xbd24ccabbe5d0295U, 0xbda16d8ebe1df58dU,
  0x3dcbe1003c69991bU, 0xbcc168433e7fa2b5U, 0x3d56cfa33dbe230fU, 0x3e3333653e3e9a36U,
  0x3e0d740e3d400b5bU, 0xbe325ce63ec0f3b7U, 0x3ea7182c3e511e32U, 0x3e98324c3e520d00U,
  0x3e6e24bfbdc70600U, 0xbb1508503e82c26eU, 0x3e14053c3e0861a0U, 0x3d4496773ea0a018U,
  0x3aed0056bcba7cc7U, 0xbd06a5a33de849d1U, 0x3caf7b6abd13637cU, 0x3c83203dbd11c77eU,
  0xbc51dff9bc51e9d2U, 0x3da1407d3d859ab4U, 0xbba98e08bd08b554U, 0x3de0e04d3cd3526cU,
  0xbcb7760a3db6ea4fU, 0xbd6ff2f2bc8995f8U, 0x3cda4d53bdbef211U, 0x3d85048cbd5cdab7U,
  0xbd011b09bd9197cdU, 0x3d8f54fe3d9bfb56U, 0x3d8b9d373da1f349U, 0x3c9f0caabc2de9a4U,
  0x3db3622ebd831f16U, 0x3d838fe33d2a82c7U, 0xbc80d5b03db243f9U, 0xbd2c85103daee869U,
  0x3dc9e1f13afa2771U, 0x3babc8f1bc61889eU, 0x3d0d4a683e0579b2U, 0x3d16fec0bc8fe6edU,
  0x3dd500103ae023e8U, 0x3a8aa2c63bb58d51U, 0x3d307c8a3d028ca0U, 0x3c8300053dd1c801U,
  0x3bf3e9593dad2552U, 0x3d84b0073bd5ddc1U, 0xbc4f1a823e219dbeU, 0x3c9276be3cba75f4U,
  0x3dd84757bd8099c3U, 0xbd092d8dbd056263U, 0x3db61c1dbb095492U, 0x3cf022203cb9eb25U,
  0x3d6090593cad5f26U, 0xbca53734bcf4af9cU, 0x3bf2ea3c3d5a41d9U, 0x3c5eed703e1a8cdaU,
  0x395e79413bf276cdU, 0xbcb4cfd63bfd8e9dU, 0xbc17f65e3d10307dU, 0x3dc43780bcdcd8edU,
  0x3dc51e183d5fced8U, 0x3da77b9b3d5dc531U, 0xbd21581b3dfe76e7U, 0x3d41e7f23cc4f606U,
  0x3bfc09f3bd528b0eU, 0x3db5f4b5bd3c364bU, 0x3c8e9d7eba998181U, 0x3d910dd4bcc2424cU,
  0x3d8509243d8c8e4dU, 0x3d0b75803c640716U, 0xbd976a28bd3c7514U, 0x3d9411253c4e2317U,
  0xbd16f88c3cebd31cU, 0xbd699ab63d820c0cU, 0xbb2e3ff23d5d3f63U, 0x3daaf48bbd981e4cU,
  0x3d93c386bb959802U, 0xb98496d83daa30e1U, 0x3b16fce73d465ffbU, 0x3d21508a3ba03875U,
  0xbd8ccfd53d340a82U, 0xbdd65f5cbd458676U, 0xbd83748cbc099221U, 0xbca50b2ebe02f063U,
  0x3c988c803c81fd23U, 0x3be1a32fbbfa5c1bU, 0xbd206e19bcdc41e5U, 0x3d9f7813b9ae0690U,
  0x3d802d023dc9d285U, 0x3cb984213d5547c0U, 0xbba96e64bbe1087fU, 0xbd6006c93db6e41dU,
  0x3d67ef41bd83a9e1U, 0x3c1b206e3c19cfb3U, 0xbc76cc053db2e4c8U, 0xbd8c47a5bd4939c1U,
  0x3d193817bcccf76fU, 0xbc74af35bd5a43daU, 0xbd7e4a7ebc595174U, 0x3d85ba073d81a477U,
  0x3db77a5f3b4543dcU, 0xbc51fb3dbd746871U, 0x3dfbe98d3b50525dU, 0xbc871e253d0c2fefU,
  0xbd2b904b3b8fa5cdU, 0xbd6eac403de5f522U, 0xbdedb3393d9bb32cU, 0xbd6f302a3cb0fd31U,
  0xbcf6a5643d685f72U, 0xbd7eb9c8bc6271f1U, 0x3dcbd7f23cf795e1U, 0xbc640e963d9121eaU,
  0x3d1d56903c5a534aU, 0x3d9529303e033f42U, 0xbd6382963cebe24dU, 0xbd2314fdbd8acc54U,
  0x3bc214d63d0bdc4eU, 0x3d6d35bebd591843U, 0x3c1c75243d8d24daU, 0xbc0bbc623dad97eeU,
  0x3d5600393d170b2eU, 0x3c852edd3d985715U, 0x3d8d113fbd872240U, 0xbd33308d3d3b6f17U,
  0xbcd04e18bd748ce9U, 0x3dae337c3d85a0a9U, 0xbdbc5b653db71470U, 0x3cf212cfbd3d5955U,
  0xbbf734abbd912001U, 0xbd7ee7d03d2b582dU, 0xbd53204cbc7f4b2dU, 0xbdc4f1c4bdab7df5U,
  0xbd632565bd17bc16U, 0xbccdaacbbd915d78U, 0xbd21346c3dd7fc73U, 0xbd7fe2843cd20e09U,
  0xbd108c83bca282a1U, 0xbd4ccb583c3ca1b5U, 0xbd72ca46bd96269dU, 0x3d2c457f3c2221d5U,
  0x3d1cb6043d6fd05aU, 0xbad439b63d79d6ddU, 0xbd2cabf8bdd1db5dU, 0x3d9d13ad3c1d2761U,
  0xbd81fe303dff42fbU, 0x3cfd44cbbdb0effaU, 0x3bc611373dbc22d1U, 0x3d63f39cbd227e76U,
  0x3dff53fb3c3cf72dU, 0x3dd2123e3d25f510U, 0x3d99ed163a5f3aaeU, 0xbdf0c245bb00d420U,
  0xbe51280e3d911e4bU, 0xbcdc8d903debcbd3U, 0xbddf5e86bde2a6bdU, 0x3dd03f533c26ccefU,
  0x3d5a1af2bda64648U, 0xbdd9e0cbbd519d32U, 0x3e0aafdbbd159917U, 0xbe813e3fbbc87725U,
  0xbdcdbe883d05237bU, 0x3d805a763e00653eU, 0xbd83c976bd92a137U, 0xbd793068bdc8e2c1U,
  0xbd81f5bfbd908ff0U, 0x3c6f243cbddc0c57U, 0xbdf8ad6cbdbd365eU, 0xbdc219723d861767U,
  0xbd0361d8bb8bbb0cU, 0x3c4843853d6fef2dU, 0xbcf7ece1bda328daU, 0xbcf68b9ebad50efaU,
  0xbc16a602bd4d14e9U, 0x3dc6a5373cc4fdc3U, 0xbd66389ebd02a4baU, 0xbd66a087bd6154eaU,
  0xbdfefdecbdaf6d10U, 0xbd0e3192bdfce254U, 0xbd9d8cb5bd420b00U, 0xbcf5457bbd2bc13bU,
  0xbcd3ac53bdf67d2fU, 0x3db67113bc3e4b7fU, 0xbd9cc081bb91c1e9U, 0x3d8ba8e3bc603001U,
  0x3b943f753cc3c054U, 0x3c1bd45d3d700c8bU, 0x3dc1f81ebda19ad9U, 0xbddfd734bdf40b8dU,
  0xbc8d039cbd8c79f6U, 0x3de0dfe3bd5f3156U, 0xbd9f52d3bc736f99U, 0x3d9ce5953d2590c6U,
  0x3dc61c3a3d20f5fdU, 0xbd3056e53db38ad2U, 0xbbaf0faabdc17f4bU, 0xbdc5f6ffbdd25ebdU,
  0x3cbd3ecabd4c6347U, 0xbd4a0ab03c883122U, 0xbd77c17bbd8d988eU, 0xbd58b2a1bcd49046U,
  0x3d4e17513e3884faU, 0x3db89f3f3d7b51adU, 0x3db896b2bd43353aU, 0x3d4714373d5b6e1cU,
  0x3ded6037bba9d0cfU, 0x3d9738f03c38e3f6U, 0x3e24c3b33cd0e0deU, 0xbe749a343dc1c19dU,
  0xbda5651e3de78372U, 0xbd26ecc93e996103U, 0xbde71b813de448a8U, 0x3e101c463d45d356U,
  0x3dab2d4e3cf863e4U, 0xbdb8971abe3897eeU, 0xbd386eb83d8ae102U, 0x3d322ff3bde0cadcU,
  0xbc84cc963cbe6537U, 0xbcf64c4b3d6ef8faU, 0xbc52fac9bd537dccU, 0x3d5cc57b3b8dc559U,
  0xbc9eded8bd925b99U, 0x3df62d523dd2ea30U, 0x3d700d263cbddc99U, 0x3dd484b43d712855U,
  0xbc439d543bbc5511U, 0xbd81251ebce2c138U, 0x3e21e33a3d714f98U, 0x3d8ef4f73d9581c7U,
  0x3e0245c23cd5765bU, 0x3da4ab2a3e3282eeU, 0x3de4d01a3de9a6c9U, 0x3e05d50bbcf0d9d4U,
  0xbddf50e1bd5181abU, 0xbcb46423bdd0ec39U, 0xbc45bddf3d7e916aU, 0x3b85dbd3bd0e533aU,
  0xbd60c374bd53bcb2U, 0xbdf10aa83d2de861U, 0xbd9c92733b73e939U, 0x3d494bcebd42ccc2U,
  0xbceb39113b33786fU, 0xbcd3af0f3d26f687U, 0xbcaccd0b3d7a82fbU, 0xbd5921c9bde25ab7U,
  0xbdcb5df2bd1b6f42U, 0x3cca8bf3bd6a8c5fU, 0x3d18bef5bd7e9f5cU, 0x3da1160b3c6d9b23U,
  0xbd4e4139bd95c359U, 0xbd4d7ed73dcc3c1aU, 0x3cab219fbc10d107U, 0xbe027e4cbd8a2ec3U,
  0x3cf9272c3cfe4863U, 0x3d371c2abd1b66fcU, 0xbd9d4a81bd859d66U, 0xbcf1d5fa3c4ea5b3U,
  0x3c9210643cef7cf8U, 0xbc82f2653c4ba0baU, 0xbcba0667bd885d7fU, 0x3cd2b43b3d5e88feU,
  0x3d0e373abd58b716U, 0x3df495ac3d5bc97eU, 0xbd0c65763ccbc71dU, 0x3d364d963dc3999cU,
  0x3d412e423d88fb5cU, 0xbc5cd7d33db7e8b9U, 0xbbf6f4a6bc296b8aU, 0x3d855ae73d4dcfe1U,
  0xbcb4e3833d8b03c7U, 0xbd113ec53d84bc32U, 0x3c03657f37fdc83aU, 0x3c9bc7cebd3fbd82U,
  0xbd277a7c3dc654d0U, 0x3d00e3883d280426U, 0x3db9076abda1dc43U, 0x3d2a094fbdc6977aU,
  0x3d0c9e233d4ed8a0U, 0xbc0282e63c10b8c3U, 0x3e115cf0bcdd0382U, 0xbcee71993d3d9144U,
  0x3d091fb93dd19879U, 0xbd428ea23de58539U, 0xbc950165bd79d0fcU, 0xbca4f6623c004118U,
  0xbc9a4b733d1c6596U, 0x3d8d362bbdb73e3dU, 0xbc3ec3cb3d0c7ca6U, 0xbe8270e73c1d995eU,
  0xbd2dbac8bdc33da5U, 0xbd27fd333e1cfc37U, 0xbd4fd6b9bcfc3494U, 0xbd473314bd7f6c45U,
  0xbd7fe9fdbcca7481U, 0xbd584af5be23aa5dU, 0xbc57995bbd6c2133U, 0xbe458604bde2c1aeU,
  0xbc93daa03d046fdbU, 0xbc929f3e3d345be6U, 0xbd2ce924bd3aacb4U, 0xbc272f96bd4f37d3U,
  0xbd3466adbdb09beeU, 0x3da5b643bdf89aebU, 0xbd909da4bb0d457dU, 0x3c11c7b6bd95a88bU,
  0xbdc6892a3d00c0c9U, 0xbd859fa4bc57ad2dU, 0x3c85a72c3cf7f06bU, 0xbc1f7466bdb52171U,
  0xbdddb448bcc208ecU, 0x3d050585bddcffcdU, 0xbd980fdebd6e6681U, 0x3de49ef9bcf733b0U,
  0xbc9d3837bcb5d43dU, 0xbdaadceabb08dd3dU, 0xbdd1e9c6bdadc5e7U, 0x3d33ddfb3d3dc625U,
  0xbd97510d3bbbfac9U, 0x3c0d857cbd13a9eaU, 0xbdc10ad9bda96f57U, 0x3df5bd19bd9a0afaU,
  0xbd1efa543d0bdc5eU, 0xbcde14033d288713U, 0xbd9391db3cf86ddaU, 0x3bfb42f1bc410dd1U,
  0xbd99ac24bd5a9f38U, 0x3cf58b72bc93aebcU, 0xbd5063b13d4267e1U, 0x3e8109963d31d3a8U,
  0xbd3b89cebd4c9031U, 0xbd646b7dbd3b1452U, 0x3d692df8bd3214c7U, 0xbbaedd9cbd7cf190U,
  0x3dc6387fbd8bad3dU, 0xbcbad1b23d0d985cU, 0x3d5bcbf13d8c7cedU, 0x3d34371ebc4f6961U,
  0xbdad5d22bdc7c138U, 0xbe0138a43d3ad497U, 0xbd09dc2dbd71b3eeU, 0x3d895e2a3c7c383cU,
  0xbb9901f0bd5b3896U, 0xbce7cb0b3c8d6a16U, 0x3c91825ebdea2f5aU, 0xbdf3b3dbbda5e92aU,
  0xbd630c95be1634f9U, 0xbd85516bbcacf02bU, 0xbe1b40a53b7bbe5cU, 0xbd9fd522bce261e2U,
  0xbda8c9d4bdadb70dU, 0xbcaae2ed3d702574U, 0xbe46d94fbdbc4522U, 0xbdcb72a6bd4d4f16U,
  0x3c865b2cbd0d0fe7U, 0xbe00467738facf22U, 0x3d8ec089be242bc5U, 0xbdd0b766bc7e4eb3U,
  0xbcd1b11dbd3f7164U, 0x3dc4ada7bd7c5155U, 0xbd975fd0bd6f5c6bU, 0x3c6ebf4b3cd04264U,
  0x3ccb730dbce689d0U, 0xbc424a45bd82f05eU, 0xbd72ff91bb0a7017U, 0x3dd01e0ebd245d52U,
  0xbd551764bb5243acU, 0x3d8107713d542054U, 0x3d264c1fbd9b1407U, 0x3d8731033d09e2d2U,
  0x3d2ecec8bda69725U, 0xbd8b9ffb3c30edf9U, 0xbdbd1d68bc5e2c2fU, 0xbd44e9f43bab7663U,
  0xbd8931f6bdc3047cU, 0xbddecb803d439b38U, 0xbcc50039bd66a15fU, 0x3dc4e2cbbd336d7eU,
  0xbd791e673db2e389U, 0xbc478c8e3d00d3e0U, 0xbd09c81f3d77db96U, 0xbd021e77bdb8e32dU,
  0x3db919cdbca53f62U, 0xba0963413db2ca71U, 0x3c59fcb23b91fc9cU, 0xba93651dbd5999a4U,
  0xbcc48cbf3d2089aaU, 0x3d36c2e33dd6d60cU, 0x3dc5f4573d57a07eU, 0x3e1477683df2414cU,
  0x3d692566bd3186efU, 0x3dcc9152bcefd9b5U, 0x3ddae96b3de36223U, 0xbd48f23f3d9171d5U,
  0x3d398efb3d66668dU, 0x3dcaed79bd653a2aU, 0xbca3428ebd287599U, 0x3e071e7bbd12ff28U,
  0x3c6df7733d504409U, 0xbd5e6cf23d925ef1U, 0x3dfb1c8c3bb9e5d5U, 0x3c2b569e3d126adaU,
  0xbd1ab1af3d4e7771U, 0x3cf10e773b80b245U, 0xbc914334bd5d4efbU, 0xbc809d91b9b72326U,
  0xbd850a84bc7ecdceU, 0x3bd236593c9efb39U, 0x3d6a8d18bd80eb45U, 0xbcd5ef1b3d14c4c9U,
  0x3d23d878bd7d443fU, 0xbd6dfed2bcb35339U, 0x3c9bfdc6be16c000U, 0x3d4828b8be177baeU,
  0xbd3ab86fbd9059feU, 0x3ddbeb8d3d1a280eU, 0x3dc1e17639443d77U, 0x3c7bfd293c8a7262U,
  0xbcfbd2763cdd2572U, 0xbd89b710bce21e48U, 0x3d8e52b0bdc39d4cU, 0xbba0d15b3ba968e4U,
  0xbd09f51ebd9138e8U, 0xbcf492603db61daaU, 0xbd2475b33d686abbU, 0x3df08c633d96a52eU,
  0x3c93854abd98e8b5U, 0x3d1c0c643dfd6901U, 0x3dcaafb8bd46d792U, 0x3c6bc64dbc9b4eaeU,
  0x3da7b8213dfd57eaU, 0xbaf0678e3ddca874U, 0x3d9ff890bd93c3c7U, 0x3dcba0263e005facU,
  0x3c010a593d6cec47U, 0xbd07ff563d7b5eccU, 0x3db4058cbd7fc30dU, 0x3d1d86f2bc446af9U,
  0x3d5c8fd2bc88201bU, 0x3db363393cf6cc3eU, 0x3af18db5bd9f5963U, 0xbc96ed453cf32510U,
  0x3cb11108bc44c3c9U, 0xbe12e5f63dc73decU, 0xbc978a58bd1a9b27U, 0xbd551cf3bd3fea85U,
  0xbddcdd2fbccc45fdU, 0xbcdc974a3df8766fU, 0xbd800d70bddbbb2fU, 0x3daf3485bd8a9f4dU,
  0x3c3501c6bd4c9bf6U, 0xbd5606ee3d04b0dfU, 0x3d8dbb6dbdad01bbU, 0xbd7680623d8ade39U,
  0x3c822f8bbd0ab2c0U, 0xbd8dcff4bd4a843dU, 0x3c31dff1bde53aabU, 0x3dc25e81bb9efe42U,
  0x3d9c31cd3bc2657fU, 0x3b1d76173d3fc017U, 0x3dbe7fa2bc6bab84U, 0xbc57d7443ccefef5U,
  0xbd5f94363d0e3282U, 0x3d7c164eba80e0e9U, 0xbd889cd1bcd9f369U, 0x3d80a23cbcad347eU,
  0xbd0f834d3da88f1cU, 0x3d3c62963dbb79a0U, 0xbd421c3abcc48f65U, 0xbd1b8cf6bcd4a9d3U,
  0x3d12a43f3d0f2b7eU, 0x3d816b893c65c78cU, 0xbd935cc43d785b2fU, 0x3dc1c7f1bc953469U,
  0x3be15db33d8064c4U, 0xbda6e2423d3ba611U, 0x3cb9d1e7bddb9bdbU, 0xbd95c347bdb109d2U,
  0xbdfa5bf0bd2001adU, 0xbb711596bc8f6ff1U, 0xbcf187e8bcfd6706U, 0x3dff8a85bd6fa6ffU,
  0xbd6b3840bd92070cU, 0x3ccf8f603e1df9c9U, 0xbd058a5ebe042459U, 0xbca752f5bdbe937bU,
  0xbdefc6b2bd84c75dU, 0x3c8eab5d3d87ffd5U, 0xbd9839ef3d806906U, 0xbcde99893d3b3f9dU,
  0x3d96d69ebd00c53bU, 0x3e1073053e42e696U, 0x3c027c02bd829626U, 0x3dbece713d80ed23U,
  0xbd12871c3e0dd2b3U, 0x3bf0fcc1bd0f1535U, 0xbdbd7915bdaee5c8U, 0x3d37edc4bc8b341eU,
  0x3d019c463c30e004U, 0x3d706a763c7bb8deU, 0xbc9cf63e3d0d9cb1U, 0xbc719708bd8be1d0U,
  0x3b934d683e25d432U, 0x3d5407323d8130f5U, 0xbd7d931cbbe817b4U, 0x3d1406d03cd05994U,
  0x3dc3e02c3d352778U, 0xbb1e3acb3d9725a8U, 0xbdb613063d7222c6U, 0xbdb0ca473d13eaacU,
  0x3b4b8edabc81c96cU, 0xbdb706b1bc51f004U, 0x3c9540113bf92874U, 0x3d743f6a3b9c473eU,
  0xbd02f2533d0dab8fU, 0x3b1480c23df147a2U, 0x3e0397903db9a027U, 0xbd5966dd3c9b0eb5U,
  0xbd749c70bc8deb26U, 0x3dfd1dfebad3f618U, 0x3c752d3cbd0afb3dU, 0xbd36a97e3d7261f3U,
  0xbd108e673d97fc52U, 0xbda1332e3e1453b4U, 0x3c90ac2a3df6e9aeU, 0x3d92d99a3dd6c92aU,
  0xbbd16ac3bd3d5c8eU, 0x3b225df33dcb281bU, 0x3dad6ab53d8bc5ccU, 0x3d15fa833b9b2ac0U,
  0xbca533163d49dca4U, 0x3d5eca813b8784adU, 0xbbc84144bda5458fU, 0x3d5c9ee23c2c7985U,
  0xbcad6efdbd3a4d63U, 0x3dbc59943c634f9bU, 0xbd041bde3b8f01d0U, 0x3daf9869bda47050U,
  0x3d77e9223bf7a50fU, 0xbaaa3673bd2d6773U, 0xbc6d1b5137a0e680U, 0x3d6807ea3d0949ccU,
  0xbdda23013deca8a6U, 0xbbf57d61bcf68a7aU, 0x3cccde1cbc9e9ab4U, 0x3e0cdb0fbc9f0e1cU,
  0xbd17fe07bd9f481dU, 0x3b73e4453d6afd70U, 0xbd071d6c3cad386cU, 0xbe1773f53cc97475U,
  0xbd73acd1bcbca346U, 0x3df28d993d2f890dU, 0x3d21a937be092171U, 0x3e8a8d45baace7adU,
  0x3dee58423cb3cd33U, 0x3d858fbabd1e68ffU, 0xba341fda3d3863a7U, 0xbcacd1633d455317U,
  0xbc10ee75bd1499d0U, 0x3da796483dc77e03U, 0x3d89f6913d27259aU, 0x3e276130bc90ae7cU,
  0x3dac87c3bc488018U, 0x3d7b1e8dbc168566U, 0x3d8aa107bc8012a5U, 0x3c31f8573d805190U,
  0x3cde198b3d496ca6U, 0xbc0f6522bd696671U, 0xbb93204bbdc64c90U, 0x3c9a1988bdf3c67eU,
  0x3e0c0ed93db9da21U, 0x3dcb3b8ebd03c287U, 0x3d969708ba855046U, 0x3dc35db33d833719U,
  0x3b8756be3ddfc633U, 0xbe03f97f3d8ad16dU, 0xbac916f43b30a33bU, 0x3cff52613d07daf9U,
  0x3e03a3543c86aacaU, 0x3e3e37483d25f351U, 0xbcf476ed3da5afd0U, 0x3d3a2e473de0fcebU,
  0x3aed39d5bc5becd8U, 0x3db5b9493d881cc4U, 0xbb359794bd82eec3U, 0xbd0e7d903d96ea46U,
  0xbbfc2307bd3fe85dU, 0x3d5804d13da403fdU, 0x3d3414873d472fcfU, 0xbc69ce9c3db64bd6U,
  0x3d819a04bc27a4c4U, 0xbd28fa563dd1a983U, 0xbd66d9633db15721U, 0x3dde630e3da317aeU,
  0x3d939524bcf56151U, 0x3de3c2db3dc165b4U, 0x3d6f3cdf3d2c0ecfU, 0x3ca404a43e2c3c44U,
  0xbc3519ab3d80a61fU, 0xbc9d35b2bd2c160cU, 0x3ad2e475bac61be4U, 0x3e1895263d9b8582U,
  0x3c953654bcc4d928U, 0x3ddc8fe6bd8d2fc0U, 0xbdd7f38bbc16bcbbU, 0x3d5514c73cd38af1U,
  0xbd1e577b3dbe3ee4U, 0xbd289258bd67f33bU, 0xbd5013093c27a082U, 0x3e8df97e3de6a8dbU,
  0x3e076774bd352f5fU, 0x3daefc0fbe528a29U, 0x3cc8ad843d60fa1cU, 0xbd2c5ff63dd06e44U,
  0xbd7f9c833c884878U, 0xbde39769bc47b11aU, 0xbd9af58a3dbb1575U, 0x3e9104703c9d4a07U,
  0x3e23eecc3d143d15U, 0x3dfdd72abca3c0d3U, 0xbd9f89e93d839e1dU, 0xbd01f5ac3b579983U,
  0xbcb2d6dc3cfe132eU, 0xbd1003243b8a384eU, 0xbdb1330c3d95f30dU, 0x3e949c1abc94c1bbU,
  0x3e215b573d38b9f2U, 0xbd3e94ea3db04418U, 0x3ba28ed03d902db8U, 0xbd03fb7bbd7dc187U,
  0x3d8937483ca27d2eU, 0x3d904d843d40d00dU, 0x3d846f503dc3acadU, 0x3e0bbda4baeba041U,
  0x3bdeedb83c19560aU, 0xbd02b5d63d94ae30U, 0xbb2e6d9a3cf1c00aU, 0xbd627384bc9f96eaU,
  0x3d3fe2573db6ca5aU, 0x3c4a529a3d90364bU, 0x3d9d20a13dbadc15U, 0xbbf63eaf3d6244b4U,
  0x3b6cf14a3d65cb5aU, 0x3d652d703d09964eU, 0x3d6f4df13dd0abc7U, 0x3dcc81e93df81ee2U,
  0xb9dbc1a83ca27f3bU, 0xbd192ffa3dead611U, 0x3e028bae3dcd39baU, 0x3dc4de9e3e06c520U,
  0x3d0a6d653d58bba7U, 0xbd962e36bc837eb4U, 0xbd608144bc06cf1fU, 0x3d47dd0ebce2d7f8U,
  0xbdb9c3c93d02c1a1U, 0x3d222209bc0142ecU, 0xbdb3c6583de066c3U, 0x38e5655abc7c7979U,
  0x3d2dcec93b1cdec0U, 0xbcc5c7623c1495c8U, 0x3da834023ca9d8d0U, 0xbd016830bc89e446U,
  0xbcbd66233d92d4f0U, 0xbb7a7f403c5b008cU, 0x3cd3f3e8bd088e39U, 0xbc8b1bc43b8999afU,
  0x3d3c05fabdb2deb7U, 0x3dc40821bdc2f427U, 0x3d3f850b3d52a873U, 0xbd44e3933dbde9e2U,
  0xbd311d3e3d6346e7U, 0x3cf350fd3d0b9cb1U, 0xbda193803c75de71U, 0x3d886a6d3dd317d1U,
  0x3d35a6e33d54de69U, 0xbd3f36c2be1e18e4U, 0xbd60cc5a3d65a377U, 0xbd41d3e13cd6c5a7U,
  0x3dbc1d783df54734U, 0xbe053f53bd1751e6U, 0xbc5456c7bcce1068U, 0x3e9941223dce7539U,
  0x3d91223f3d70eef0U, 0xbd06189fbda2afeaU, 0xbbbfbaaebdbfa676U, 0xbd86bc513d3fa97fU,
  0x3d81f66c3c85cca1U, 0xbd32cba93e1e846dU, 0xbc13f5a4bd122efaU, 0xbc916ad33d8f0dcfU,
  0x3d4437603d55d85fU, 0xbce08c3d3d3503c8U, 0xbd0408b3bdbc8b32U, 0x3c846000bd85e4faU,
  0x3d8af44fbd0d7b2bU, 0xbcd155ffbd3170f3U, 0x3d635b463dc752f8U, 0xbd1d5350bc64bcd3U,
  0xbd39f7e93dfbf694U, 0x3dc874143c51e7e0U, 0x3ca2d91cbd1b1770U, 0x3d12b4dbbd502cfeU,
  0x3d95bff8bc479757U, 0x3d33558e3d447ef3U, 0xbd31ee1e3d7ac805U, 0x3d56ddc33da8688eU,
  0x3d5d89bbbdd834c0U, 0xbcd179963dd09a2fU, 0x3cb06fcabe098b93U, 0x3d9098c03d03b4f7U,
  0xbda84097bd97275dU, 0xbdbb6710bca80f82U, 0xbe099542bc25a54dU, 0x3dc97cca3ad0ca91U,
  0x3ca0a2313bbbeb6dU, 0x3d48d932bc3dcbaaU, 0x3d9f5b7d3bb3799aU, 0xbcb048a2bd4022d4U,
  0xbd8041a93d38f1dcU, 0xbd3bcbe03dfffc12U, 0xbb59e90fbd95f15bU, 0x3d1f72893d093a5aU,
  0x3d5f2b703d32d200U, 0x3b4edd0bbdb6afbeU, 0xbdce45adbda1c817U, 0xbda926863cf9e897U,
  0x3d56d1ba3daaf72eU, 0x3d6ffeecbd7e64dbU, 0x3d95b45b3dc65670U, 0x3d62bbfabc43888cU,
  0xbb6137163d15f97fU, 0x3d9343f33dbfafa7U, 0xbd2c05d23d706f5eU, 0xbd8ce8493d91c6f4U,
  0x3d882efdbc23d41eU, 0xbe1aab25bde25fc1U, 0xbc8c8e57bcef2308U, 0x3dc11b2a3d6c02f4U,
  0xbe03b107bd03890fU, 0x3aff1fe23d7cb4c8U, 0xbdd9cb1a3d253068U, 0xbda79d813cafebf1U,
  0x3be0c53c3d0cd9b7U, 0xbe34a12ebd3cf8b1U, 0x3cf2811bbd9b60e1U, 0xbb9d0b65bd8e8210U,
  0x3d7d6de3bd0a0020U, 0xbd5adba6bbd64a32U, 0xbd0975febd9f258bU, 0xbce52d3e3ceeeccdU,
  0xbd8bdfefbcba8962U, 0xbd0a4b7c3d844c5bU, 0x3d34b0853d5d8543U, 0x3d17402cbd51ba63U,
  0x3dec0e513d730277U, 0x3d0ee0d83cbe3b21U, 0x3d92edafbd53f51fU, 0x3bac2440bd3a9848U,
  0x3d66957f3ae5fa8fU, 0x3db8c14bbd3f90f7U, 0xbc329edebd56043fU, 0x3d9ef7be3d51bd69U,
  0xbd4a648a3d2b58e8U, 0xbe0f27973d9732ffU, 0xbddb24403b901f56U, 0xbca6325abe28c77eU,
  0x3c58764c3b440f79U, 0xbd56b6ef3d652b59U, 0xbbe99b8abdc740dcU, 0x3c7479c0bd94d5acU,
  0xbd867202bd68f1abU, 0x3c8a84febd57b0d7U, 0x3d830dc0be3094e2U, 0xbcd933d4bd4e8e7fU,
  0xbd2c4e16bd3aa671U, 0xbc47aa8bbb962167U, 0xb94e36debb0d4dd8U, 0xbcdfa4da3d71a86bU,
  0xbd0573fbbc3ddfccU, 0x3cfae7eabc39bc15U, 0x3b562bfe3c90becaU, 0xbc8e4c163be37706U,
  0xbddc12973bca2980U, 0xbd75643abc976e3dU, 0xbda28b543d13d700U, 0x3d27d6c63d483dedU,
  0xba81c44cbde30e4bU, 0x3d3cd7013c160b19U, 0xbdd31cd6bdc0a0e2U, 0xbdb8aa4cbddb8a68U,
  0xbc23bff7bbd57ec0U, 0x3d02c55bbdd26555U, 0xbe28c071bdbb1391U, 0x3c62fa3abd2ae74aU,
  0xbcf8b486bd854172U, 0xbd02ef4b3d970fc6U, 0xbd380879bdca2887U, 0xbd9c2b21bd4db80eU,
  0x3cb248393c1d6195U, 0xb95304e33dba6d65U, 0xbda372eebda37a8eU, 0x3c2bae173da95ad0U,
  0x3d58ad60bd46331dU, 0xbc1fa2cebd087c46U, 0x3decc597bd2060c9U, 0x3d34d1653ce029bfU,
  0x3d0622933c59535aU, 0x3db778a83dc7b80cU, 0x3d3a4db63d5ef55bU, 0x3a86096ebce80c69U,
  0xbd8e8721bd2d5dd7U, 0x3dd383933c7459dbU, 0xbb06a9b53d8e1fc6U, 0x3d4104643d9f4feeU,
  0x3d2d40763e14b7e9U, 0x3d1fd217bc3756f2U, 0xbcf7b56bbdb79174U, 0xbd9b35efbd0fdb6dU,
  0xbd5169e13dd0376bU, 0xbd0122b9baced5bbU, 0xbd442d233b801ea9U, 0x3daed2b03ccbc4edU,
  0x3d90a1463d77dba2U, 0xbdb98f4f3d50865dU, 0x3ddf8e923e01b6feU, 0xbc8c3f793d328c7dU,
  0x3cb453febcfa5838U, 0x3d0aa496bc5eb44dU, 0xbde4c8d6bc7d4dc5U, 0xbd292cbf3d0c3cdbU,
  0xbbb8ed1d3d9749b5U, 0x3c0ea1aa3d5ff720U, 0xbcb6b03d3ca44e8fU, 0xbb93ca123d769d5aU,
  0x3d03d2393ce57017U, 0x3c811a70bd5382f6U, 0x3c4aaa96bc456ad6U, 0xbd193715bdc5c365U,
  0xbd806ed2bd8e50aeU, 0x3d97c15aba97222cU, 0xbdbdd3ff3bc5ed83U, 0xbdb736ae3d09ade4U,
  0xbd534a9d3b507894U, 0x3df8b1e73cf8684cU, 0x3e1d4ad93c86c290U, 0xbcc08d9ebcb903e0U,
  0xbc88335cbc347e8fU, 0x3ce190403dd4fa21U, 0xbbb508863d6e63bdU, 0xbd9df373bd4ef07dU,
  0xbca8e5433d9975d6U, 0xbc225ae8bd15565aU, 0xbc0d8ea43e01bcedU, 0x3d65d3063d8c7631U,
  0x3e252bb83e23c0f8U, 0x3dab09983e01d7e7U, 0x3c35504fbd501ae3U, 0x3c3312293bebcd33U,
  0x3ccbdb3bbb580c70U, 0x3db6fd0bbd461130U, 0xbd92cbd33e035095U, 0xbcc4f1a73ce4de94U,
  0x3dfe2d213db9350eU, 0xbd5bb06fbd5a2348U, 0xbce194c8bd1d45bcU, 0xbd6a7778bd2a9053U,
  0x3dfbb8d43d29d7acU, 0x3cf02fb5bd3cb673U, 0x3da8c5f03dfea718U, 0x3ba6ec6d3d135626U,
  0x3dde664c3df07cf1U, 0x3d061d193dc21948U, 0x3cf4a911bdb68c8aU, 0x3c0055f73dce3fccU,
  0xbde80925bd2e3960U, 0x3c920edfbd9feffaU, 0x3d6fdc5bbc1a0b2eU, 0xbdc6fdd93ce3d3f7U,
  0x3d9b43fd3bc5a0eaU, 0xbd22c259bdbd5784U, 0x3d17ceeb3cb89789U, 0xbcee03103d0b7930U,
  0x3b9d0eeb3d80bdebU, 0x3d2bd4cbbd9d7d30U, 0x3d56b0d43d15fdf0U, 0xbd7057983d41f733U,
  0x3da2ff9cbd394ac3U, 0x3d93fc79bccf407eU, 0xbd05e29a3d9635a1U, 0xbe02f9f73d827683U,
  0xbd3d3f5ebd96b760U, 0x3dbaaeb8be0762c1U, 0xbdb37c4e3db0de31U, 0x3dfd006cbd592bb5U,
  0x3dd3cd59bc97fb12U, 0xbe4c3f983c1324d1U, 0x39b8a612bcc69830U, 0x3c8a238bbc931b24U,
  0xbd9c04ff3e02de64U, 0xbc699190bdeb4280U, 0xbd1ef0513dadcbc1U, 0x3afd06f83da5e895U,
  0x3d4036053dd61431U, 0xbd91eb5dbb8a742eU, 0x3dbe147cbd0ce194U, 0xbd45c01c3dad586dU,
  0x3c763f2e3d559a76U, 0x3db0e696bd94f42eU, 0x3d3d658f3b793b1eU, 0x3de611d83d6cb37bU,
  0x3d4673053c365d59U, 0x3ca515453e00435dU, 0x3dd04c903d304803U, 0x3db620423da6babdU,
  0xbcaf69bd3d1e18ddU, 0x3d88b082bb86c9eaU, 0xbdae58cd3da7643dU, 0x3c9645e33db3cbb0U,
  0x3db89d153dad09b5U, 0xbd35d0ed3d7105aeU, 0x3d8a3ed33dc8ffc9U, 0x3d64e9913c3bf5c8U,
  0x3ca01e263b649860U, 0x3c799b3e3d05d317U, 0x3d9f2a8b3d5e38e5U, 0xbdc6f13d3c725420U,
  0x3cd534333d590a0cU, 0x3c04bc5a3e085845U, 0xbd048e13bd430244U, 0xbd3234843d0b6c2bU,
  0x3d13d56ebd0bfca5U, 0x3de8982a3d489e50U, 0x3d6c3c2d3d30d625U, 0xbda5a683bc67a969U,
  0x3cc63838bcdc09dcU, 0x3d0f241cbba11aa9U, 0xbd42bfab3aeff3e6U, 0xbe4854853df70813U,
  0xbc01535c3c802533U, 0x3e0b25723d34f0adU, 0xbd0b9b083bc23182U, 0x3deb9dae3db00b45U,
  0x3cd9e1e53d9f7921U, 0xbd83d569bd6ed6ddU, 0x3c9601543dfc8a9eU, 0xbe4bf64c3d98b450U,
  0x3d3ecced3b67c390U, 0xbcb8a96dbe9fb1beU, 0xbc1e21c93cc399dbU, 0x3c9ab24bbc6225d9U,
  0xbcb46a423dab0642U, 0xbc56da5abd530c61U, 0x3b51377b3cb3a1c2U, 0xbdcad4f33d4e8812U,
  0x3dec58093d864925U, 0x3d8dd365bd00b05eU, 0x3c872620ba5d9c8cU, 0x3c040507bd099f5dU,
  0x3c19ac6d3b368e38U, 0xbdf151ecbe2822ceU, 0xbc1d700a3d22ff03U, 0xbc0ac2433d64ec4dU,
  0xbc2c68cb3def193aU, 0xbc8b09313b2b06e4U, 0xbc9489f23d49cff3U, 0xbcf7da803c970e04U,
  0xbc72a35d3d159fc0U, 0x3de9f5dc3d14b713U, 0xbb60ccaebc7224d2U, 0xbd509e23bcd7904dU,
  0xbd823afe3d9ec87dU, 0xbd267cdb3c060d8eU, 0x3d3762ee3d5cab14U, 0x3d4053513d22d7bbU,
  0x3c049f6c3d6ff349U, 0x3d4b43893cf943c9U, 0xbc7569423c020dfeU, 0x3d1d81553ca7e584U,
  0x3dec11d03deb9c14U, 0x3d206798bb91a840U, 0xbc5c1fc03d4cb951U, 0xbd474940ba90f554U,
  0x3d3094b83c0e17f1U, 0x3d7693c1bd074f02U, 0x3d042e8a3d386755U, 0xbd23ef353d228f49U,
  0x3e15a1bbbd138c9aU, 0x3c1728edbb8f65a2U, 0xbd2cf4f33db614caU, 0x3d80fb5fbd2dc6e6U,
  0x3d32561b3cb88e33U, 0x3d4c546e3dd8e184U, 0xbdd257eb3c818831U, 0xbdc753c63dbd5d4dU,
  0x3df72df9bc0bd335U, 0xbca29596bd34a2e6U, 0xbcfdd9ff3d455c3bU, 0xbd5ea8d13dda4fccU,
  0xbcee0aff3d6ef9c0U, 0x3d11bd2d3e0afb70U, 0x3d025aadbd8b9377U, 0xbe1784a53df760d1U,
  0x3e0790993c6f8b26U, 0x3d23e43abda0ee51U, 0xbd80b2a73de57cddU, 0x3be5bd063dbdaa66U,
  0x3aa7c05e3d56460aU, 0x3dac52813c62aa68U, 0xbd9f6c223dd5b497U, 0xbe2a51063cfa7f69U,
  0x3d6429dcbcfa1bf5U, 0x3cb87101bc943bd0U, 0xbe0276583cf75e70U, 0xbcbdcbcf3bcf259cU,
  0xbd9a35a6bc9d2ca5U, 0xbcdb7756be5f89e2U, 0x3b461429bc247f32U, 0xbd634fab3bda9877U,
  0x3d12f3fdbb2a7a11U, 0x3d893db7bdcf3f3cU, 0x3d347dfe3d02f3d2U, 0x3db75bec3cee82e3U,
  0xbd1a44abbcb3c262U, 0xbd86a42dbde4ea09U, 0xbd377ea4bd87246eU, 0xbb89d3d83d557b8bU,
  0x3cddac84bc942763U, 0xbd0a9ae63cd06743U, 0xbc6812bc3d349907U, 0x3d89fc0f3ca797bfU,
  0xbc9953dbbd8b0ec4U, 0x3c94d7debd2d2dcbU, 0xbd7d85b73dda22fdU, 0xbdb42cc23d252253U,
  0xbd7ff1943d4726d0U, 0x3c098ccebdd94635U, 0xbd80d5c5bdd221c0U, 0xbcda06213d055f29U,
  0xbdb4a5b8bc9f3ad4U, 0x3d43ef6dbd97c62dU, 0x3cf331823d1a6c06U, 0xbd801ae4bdd94d42U,
  0x3d88bb103bcefda7U, 0xbd86efcc3db23dc2U, 0xbc7c01053d2513baU, 0xbdb770f0bd8ad121U,
  0x3d0426583d1b3fecU, 0x3d96caff3d40537cU, 0xbd3ba73639f68096U, 0x3d10a871bd816e86U,
  0x3c814ce9bdc9bc5bU, 0x3c21e5523d0d930dU, 0xbd6c2d113d9ffd13U, 0xbdcb4498bda1c3eeU,
  0x3d57fbf7bdd9c3e2U, 0xbd0aaa84bda6a0ddU, 0xbe03864b3d8ded65U, 0xbd5673463d1ea1ddU,
  0x3d2737e8bd4ca860U, 0x3c966a0d3d7bb782U, 0xbd677674bd8fafc5U, 0xbd0503613d6d798eU,
  0x3d4cb4d53d3af0d7U, 0xbd2f10ce3da7177bU, 0x3d2076ce3d910e85U, 0xbd01b8ff3c8db096U,
  0xbd567bde3d2206c0U, 0xbd952a333cec8170U, 0x3c9d958d3d8d8221U, 0x3d9721b83dab5e1cU,
  0xbc765ee9bd88403aU, 0x3d3dec88bae967c5U, 0xbc5ececbbd93f67cU, 0xbd2eb07bbd02170dU,
  0x3d3cf2c0bd6f9fe6U, 0xba43d570bd833482U, 0x3d4016a1bd4fcfb5U, 0x3daa5212bd43ce2dU,
  0x3d87aa77bd85f0d2U, 0x3de038043d55b5c9U, 0xbddf09593ce8a646U, 0xbd0af689bc2f3745U,
  0xbda8e139bdda9c1eU, 0x3d2ca4e3bd23087dU, 0xbcd211a33c621696U, 0x3c9e6cb5bd841672U,
  0xbdd49165bb0a9577U, 0x3dee4b96bd5af15cU, 0xbd8f021dbd37704fU, 0x3c33c204bdc2cde6U,
  0x3db68e4abd9ee47aU, 0x3d85ca733d31b967U, 0x3d024db9bcfeccf7U, 0x3db7bcca3d577c30U,
  0x3d0509fb3d47d783U, 0xbd3730cb3c10a0eeU, 0xbbfc32a2bc3d9619U, 0xba221284bb0b7337U,
  0xbda551bfbd6c55cfU, 0x3d27a3c1bd71ce44U, 0x3d8bc06b3cb0df3bU, 0x3c1da29ebd9422fbU,
  0xbc90d19a3c8c805cU, 0xbda5e93c3b2540e8U, 0xbd058299bdb1119fU, 0x3d7fbc7b3d4c4600U,
  0xbd47b316bc0b8c11U, 0xbd9f032f3d504d09U, 0xbc27d03e3d4eb980U, 0x3b929d6abd8d59baU,
  0xbdb2ee7fbdbf8e5fU, 0x3d76b3ae3cc7d5d0U, 0x3b7e8c0bbdb7f61fU, 0x3c7a281ebd98bb24U,
  0x3cfc15273d458b1dU, 0xbd638c4ebb14dff0U, 0x3d69fa493cceae0fU, 0xbd7ed9aa3d3e5b06U,
  0x3d444936bd1f8d30U, 0xbd51ffb8bcb06832U, 0x3d7dda92bd5fd2d3U, 0xbdb52eb13ccfc3e9U,
  0xbd9f27183d074905U, 0x3c210139bd304b6fU, 0x3c4103b33db20a98U, 0x3d6f0531bc8c7f0dU,
  0x3d850b8a3c80b40bU, 0x3c8a61003e1a35ceU, 0x3d251b32bd122b93U, 0xbd4ccac7bbb0406dU,
  0xbdb160003d8d6f6fU, 0xbdaafbc2bc58b1ecU, 0x3dac25403de73941U, 0xbd451b993a17ba7aU,
  0xbd8979523d74c12eU, 0x3d84fa41bdba5d83U, 0x3d1af65e3adc3476U, 0xbdc839d4bd4f53e0U,
  0xbd90a123bd8d24deU, 0xbda9232abd571c7bU, 0xbdd42917bd1463a6U, 0x3d1472febd582274U,
  0xbd44513cbd86665fU, 0xbdb2e18fbddc4612U, 0xbd38f42f3c158da4U, 0xba4213a6bd960441U,
  0x3cb539f8bd8fb1f1U, 0x3d59eb31bda0ab11U, 0x3bd3f53cbd3320e1U, 0xbd54a2ee3d1dabddU,
  0xbc5b1c16b8fe6ce7U, 0x3d1e9e063d4c8725U, 0xbd0cc0b13c84b0f0U, 0x3d42f2e33d93d5ebU,
  0x3e0374be3ddf4066U, 0x3deaebfd3c2d323bU, 0x3d72eb6fbd168e93U, 0x3d96df2c3df0140aU,
  0x3ce7e061bd2a2505U, 0xbd3f9b1a3d167032U, 0x3ba23f7dbcbb9e58U, 0xbd62a0803dac75ccU,
  0x3c6f985fbcfcba01U, 0xbc84880abdc6757fU, 0x3d5503a13d964f82U, 0xbc6e0558bd172fc5U,
  0xbcf14554bc4964cfU, 0x3cdbfbdc3d410c46U, 0xbc7e5960bd3f98c3U, 0x3bb0b2bbbd623eeeU,
  0x3d81d1ce3cd23120U, 0x3d7f4dfcbdc03ea9U, 0x3d843e83bcec58e2U, 0x3d251a4e3d2481b0U,
  0x3d9752e4bc2f5cd3U, 0xbcc98deb3da984b8U, 0xbd8d229ebcd7aa00U, 0xbda3f6663c2593c1U,
  0x3dac356dbb67ca40U, 0xbc1c98433de70e4dU, 0x3dc5d6113b262fcbU, 0xbd349b493d95c87fU,
  0x3cbf86bb3d2760c7U, 0x3dbbb88639642983U, 0x3d8674b1bd860edfU, 0xbd26300cbd240471U,
  0xbc132131bc165911U, 0x3ced28ad3d53cfa3U, 0xbcbf168ebd2620fdU, 0x3dec2b2b3cc0ff07U,
  0x3da489933d6dc7ceU, 0xbd87373cbdc518a3U, 0xbc00fa42bd8fa6b2U, 0x3c1cdb68bd587c55U,
  0x3d743f783d8f192bU, 0x3ce4123abd859266U, 0x3a9b2ba63d2400c1U, 0x3d339df43d4fe5f7U,
  0x3d24d9b03dc215daU, 0xbdc15c753d197a28U, 0x3ca353f63d37170fU, 0xbdb40c8a3d3de5e9U,
  0x3d634b3dbc35c403U, 0x3bd921e13de19f4bU, 0xbb79899b3abf1170U, 0xbcaead413e210578U,
  0x3d86bbc53df9edf3U, 0xbc4bac4d3d13a4adU, 0x3ddcf2183db45c3cU, 0x3cbe7319bca5b76cU,
  0xbc9f103a3dc109a5U, 0x3d1ac699bd2542c3U, 0x3d25b4443c8bec1eU, 0x3dcc6bba3e1209a4U,
  0x3d1f8d77bbe5feaaU, 0x3dc534bf3d29cb56U, 0x3d934feebd9989a2U, 0x3e179c8e3d8ce579U,
  0xbd88a72ebc444291U, 0xbd11f26a3d852ce1U, 0x3e017bbd3b844e35U, 0x3c85ab203dc68fb9U,
  0xbd7b44d1bca60e12U, 0x3de668d63d79cc8cU, 0x3d91c31dbc30008bU, 0x3dd698a3bcfda5ecU,
  0x3c6228bb3bb1c476U, 0xbdd565c23d6ad2a4U, 0x3b88c01fbd884f12U, 0x3d02dfe4bd1a8bc2U,
  0xbcc65048bd930e41U, 0xbdb46a12bd00eab5U, 0xbdcdcf7cbd9fa8c0U, 0x3d19cba2bd69a5f1U,
  0x3dcd1bc2bd360e39U, 0xbd1cd3c6bcf4734dU, 0xbcdde236ba737249U, 0xbd2ffa3d3d5c97c1U,
  0xbd9474abbe017743U, 0x3d1ce8633c8a19e8U, 0xbc4f6a77bdf9f654U, 0xbbd64fc4bde89276U,
  0x3beb24cc3d38a404U, 0xbd4187703d84eaa4U, 0xbceea874bcabb97cU, 0x3d50813dbd415907U,
  0x3d5ae01b3ca62944U, 0xbbc1e18a3d460af2U, 0x3ca4603abbcf0c4eU, 0x3dbb60bdbd461d87U,
  0xbd193cd9bd4533b8U, 0xbd3aa4a03c1c08faU, 0x3d50e64dbd86fa6aU, 0xbd84648cbd46f24eU,
  0xbd5431323ca0b6deU, 0x3d81b0f73d92105aU, 0x3c092ba5bd6a3522U, 0x3c8cf5b93d3bb9ffU,
  0xbcce9ee43dbd6480U, 0xbd17db103bbb144bU, 0x3e0694d03deb15f5U, 0x3cd152153d4fb24eU,
  0x3d443759bd2ef383U, 0x3c3b715b3dd6aec9U, 0x3daa929a3e2e4329U, 0x3c8f34edbbb9316aU,
  0x3dd1cf9bbad2284fU, 0x3d6719693e1dd1daU, 0x3db1fd893b84aaecU, 0x3e1912ba3db976c2U,
  0xbd7dc28e3df43641U, 0x3cefc5e93c2ead33U, 0xbd3ba47ebd2d7e84U, 0x3d779bbd3de57196U,
  0x3e405bb3bc2fb33aU, 0x3dafb7f5bae58518U, 0x3db622c83e0695a9U, 0x3cfd3f5d3d666317U,
  0xbc9fcb9b3e118fc8U, 0xbcceb3033de0df8dU, 0xbd5644a3bcfd725dU, 0x3e39f5ea3de10d38U,
  0x3d84741f3cc01f92U, 0x3e05cfa1be274175U, 0x3c21b0863ca8444fU, 0xbd2825463dbee11aU,
  0x3d8d40353df8ba83U, 0xbdcadc71ba07b6fbU, 0xbd26308e3dae1acbU, 0x3e3f31833df37dbfU,
  0x3c89a5d93cdea1a7U, 0x3d00bceabe0d7e7dU, 0x3e0c6aec3cd4a98aU, 0x3d339f8cbc9d6b0dU,
  0x3d9525a83d5cf4c6U, 0x3d80da843e03ec12U, 0x3decf876bcb6a276U, 0x3cea6e223dba27feU,
  0xbdc17563bbc5a60fU, 0x3db259c3bdf01cdfU, 0x3d81a9fb3d2cdff4U, 0x3daddf633d0265c6U,
  0x3bba0d6f3dbf54eaU, 0xbd4a97643d25fa1fU, 0x3df3b7d43dd42c08U, 0x3c636cc9bdb45cf7U,
  0xbde121ab3d878174U, 0xbbc0c82cbc850159U, 0x3daf80ab3df65e0cU, 0x3e2ba81d3e1b06f9U,
  0xbc90848cbd0efceaU, 0x3da488cd3c46842eU, 0xbc4864773bce616cU, 0x3d2fe4993de3af91U,
  0x3dc177033db1a51dU, 0xbd2880213da41bf4U, 0x3be9cc7e3944d5d8U, 0x3cad8e403ddf5ab4U,
  0x3dc676ee3d823b5bU, 0xbcc50be83c9d70a4U, 0xb9887d6c3d03932fU, 0x3c70deaa3d7a3bafU,
  0x3ded4dbf3c4e03ceU, 0x3d68bf493dc98de0U, 0x3c8e63bf3dec83eaU, 0x3bedb1b23dc21758U,
  0x3d5512e93d84f478U, 0xbc86b9f23d6a1086U, 0xbe00adfebda85589U, 0x3e55e22d3caa9f1eU,
  0xbb63b7d43d991283U, 0xbd3859c9bd3b91aaU, 0xbc9847a33d953cf0U, 0xbdbab92cbd36254eU,
  0xbd8375a33d2a0371U, 0x3d42c5553d338fa7U, 0x3d2923083dd0e76eU, 0x3e5f573bbb03ce14U,
  0x3dc0bbf5bb660cd1U, 0x3df340eebe197db0U, 0x3d66c848bc8e7a21U, 0xbcd2ff3c3d8e46edU,
  0xbc4564873d518369U, 0x3d3bf12c3df19defU, 0xbd069c9b3d667eb7U, 0x3df1650c3dfc33f0U,
  0x3d7192bd3dfa8bb0U, 0x3d8c863dbd072210U, 0x3d1b2a64bd867082U, 0x3d9ec1633d407f49U,
  0x3dec8b503d0cb188U, 0x3ca1fd1dbc00f1eaU, 0xbd09987b3defe50dU, 0xbdfa18ad3db68f48U,
  0x3ce52befbc72bc3dU, 0xbcb3a2f6be0f01f6U, 0x3be8c4c0bc57795aU, 0x3dc4975c3d1439a9U,
  0x3d9c7c083aabf989U, 0xbdf38f98bcfb8e8cU, 0x3d7b6b59bc175544U, 0xba25900abd16bcf8U,
  0xbc8812123e321fe0U, 0x3dffb93dbc9bc93fU, 0x3d1a5fdc3d95817aU, 0x3de02d513d2aba8bU,
  0x3d4856e33d4ba8b3U, 0x3ca46e75bd779ff7U, 0x3c75630b3b9d7572U, 0x3ddaf97f3d9d9f1bU,
  0x3db0d009bcb4f9e0U, 0x3d11fab9bd118c05U, 0xbd1e16e73cba0042U, 0x3d7047dabd201eb6U,
  0x3dbf19ed3af025a5U, 0x3b1637e8bd1a1be0U, 0xbb82eab03c35be4fU, 0xbcb2b618bcbcebf6U,
  0x3d8f5f483da7f09eU, 0x3d9c5aab3d904c13U, 0x3d37ca6b3df8a438U, 0xbd3d7a8ebd1e6150U,
  0x3d1d0a2d3d55b866U, 0xbdb079153db74a97U, 0x3c7900973d51fc59U, 0x3c8a77da3df69f6aU,
  0x3d9a3bf6bcaa654dU, 0x3d5b930bbdcdcfa5U, 0x3cc30767bd3700d8U, 0x3d3e0a5cbcdeca9dU,
  0x3daba3293d5f1123U, 0x3d84183d3da8aabaU, 0x3df3dc763cd7b821U, 0x3dc44c3a3d936c8bU,
  0xbc09918fbe0081e3U, 0x3ba7834abd919a59U, 0xbded2297bd0e341fU, 0x3d06825ebd256d4dU,
  0x3d4a3d2f3d7a8744U, 0xbd8c24663a1732ecU, 0xbd164f213cc2b7f2U, 0xbe043ece3d27c58eU,
  0x3d409dc53d8dcbc3U, 0xbd7d3863bdc27eacU, 0x3cfe9356bcecfbf7U, 0xbd25f441bd334b2fU,
  0x3dab324b3db0c394U, 0x3cf5c3e4bca0b4c1U, 0x3d1003d43d8fe216U, 0xbde53fdd3df9ce09U,
  0x3dbb20a53c8c635dU, 0x396637f63d00cd62U, 0x3d3ed1153d292fecU, 0xbb3728603dc98ebbU,
  0x3de924e73db3f687U, 0x3d2d1e373d8349c8U, 0xbcb9fab83da83115U, 0xbcde624e3c1bbc7aU,
  0x3c2111703cf6cf51U, 0x3daa8ad53c1c5401U, 0x3cecb7953ce247eeU, 0x3db9e0403cfb59fdU,
  0x3c967ecd3d4e2dacU, 0x3d973e033ba42d47U, 0xbd500db03db9eefeU, 0x3ba7f6023d1dd070U,
  0xbcd2aa853d05164dU, 0xbd1deb793dde46b6U, 0xbc858acf3b9b95caU, 0xbd49f9203cb64c51U,
  0x3bacc786bcdd590aU, 0xbce08189bd1205acU, 0xbd192d1a3d1b3390U, 0x3c95f30b3dd927acU,
  0x3d827efb3cce19ffU, 0xbdc883aa3dddad4eU, 0xbc57da8abc6dac5cU, 0xbd15a458bdcb6a9dU,
  0xbd2e908b3d47f573U, 0x3d46bad3bd764ebcU, 0xbbc6d5773dca3a8aU, 0x3bf55c17bca435dcU,
  0x3dd8b0fabd898856U, 0x3d0e15533cf716dcU, 0x3d17668b3d59bfb5U, 0x3c7191e3bc3e2b07U,
  0xbdb71303bcc25a6fU, 0x3bbbaadf3b8d9830U, 0xbd5928f4bcd858bcU, 0x3cc0134e3cac44dfU,
  0xbc616079bd598b70U, 0x3d63d48f3dd8d46cU, 0x3d1cdce43d3d226cU, 0xbda9e5a6bd6e2486U,
  0xbd27393fbc206904U, 0xbbd79e44bc16bb39U, 0xbb06a8d83c5a5a89U, 0x3dfb6b9b3dbb0da7U,
  0x3d897195bca3cbc7U, 0xbd0e7b7b3d7b79d1U, 0x3c913a693ce84cd6U, 0x3bba4b513d2e0b9dU,
  0xbd45bfea3bf2ce7aU, 0x3df28d183db340b6U, 0xbd2b9e673c0a3389U, 0x3d10719bbcc21e10U,
  0x3dee64a93d08acf9U, 0xbd3b0d883ca407d3U, 0x3d700e65bd87aa86U, 0x3cd3723a3d8415a6U,
  0x3dd99e733d3761e8U, 0x3ddeb7e8bcd9ba25U, 0x3d82205dbcd16cf4U, 0xbceac1293d2f4193U,
  0x3d903102bca18c73U, 0x3d7b95f43dd42b71U, 0x3cec37b2bcc9185aU, 0xbc23c93e3c9f3963U,
  0xbd6054983dce5611U, 0x3d1b83453c9f0a4dU, 0x3c56ce50bbf8c252U, 0xbd42312fbd0924c5U,
  0x3da8e922bd03212aU, 0x3db0822dbcdfcdfcU, 0x3db7083e3cd43943U, 0x3c1884f33d6afa07U,
  0xbc7a3ef33c45eef6U, 0xbc0e976abd9a5dbdU, 0xbd022eec3d085fe5U, 0x3d8bbb57bcc69b41U,
  0xbdd9166ebd27dafbU, 0xbdd4dc043c85c04cU, 0xbcef9423bdb55ac5U, 0xbb6b2976bda48240U,
  0xbdcc9c9cbcffc099U, 0xbcf0de8a3bacc5acU, 0xbdb508e2bc44804fU, 0xbc113494bc77200cU,
  0xbd493b43bd6288e0U, 0x3d3a37a43db8c5ddU, 0xbce074e6bb48923bU, 0x3d9e33cebcc8760bU,
  0xbd906ea4bd41500fU, 0xba4bd342bc4f504cU, 0xbd3e1fdcbd79a43fU, 0x3c19289d3d7422d4U,
  0xbd8b9c6f3d6c0236U, 0x3b89faca3db01f8aU, 0x3d1610f03ceb01f1U, 0xbdcac9f5bdba1eeaU,
  0xbd893676bdc68d41U, 0x3c9a704a3b85c5c3U, 0xbd764aef3d915c95U, 0x3d0b7ffdbd157912U,
  0x3d394f663c963bedU, 0xbaf95e4e3db1ebc9U, 0x3dd570bf3cb24d40U, 0xbca344af3b9f36a0U,
  0x3b4bee06bcb36fd7U, 0x3d73b1353e0f7178U, 0xbdcc81bdbd808d69U, 0x3d8a57143d13d2cbU,
  0x3d16090fbd0e3ccaU, 0x3d5b80c13e004555U, 0x3d17c3b03d2c8802U, 0xbc8ab9b1bd248489U,
  0xbda0ae2bbdb45dc3U, 0x3c699533bd1a9745U, 0xbd8c8af8bd84ef3eU, 0xbdcfaf1d3b2644dbU,
  0x3d5f16493db15bfdU, 0x3c18fe91bd6f64b2U, 0x3d43c8f83d7f2736U, 0xbc6744fa3d64de20U,
  0x3d299d043cf0937aU, 0xbd7638673cf22095U, 0xbd07acd93ce62208U, 0x3ca673e23bb910c4U,
  0x3d08b4943da81524U, 0x3b8003b03d2ef1b9U, 0x3d3ff750bd820619U, 0x3d44a088bb57f7ccU,
  0x3e16615bbc851d01U, 0x3e1021f33db05ed4U, 0xba6257d2bb3b0266U, 0xbd77e0f93dc77970U,
  0x3dc616c03d719377U, 0x3ca873903d0d4c61U, 0xbd9d5f23bba2e122U, 0x3e10ab423d6676feU,
  0x35888480bdb8f18cU, 0x39c5d332bdd6dd52U, 0x3ca7563c3b5d0d1eU, 0xbc3f1f403c0384a1U,
  0xbbfb52fb3d8ab691U, 0xbd4fdeaf3d630d29U, 0x3d87f4f73b81b8e2U, 0x3e41aeef3c93893cU,
  0xbc30694f3c28cf19U, 0xbd1256bebd3635f8U, 0xbd1b9de4bd608560U, 0xbdb12419bd7db8b2U,
  0xbcbaa1d9bd6ef2fcU, 0xbc97ee1d3b6ed2a2U, 0xbd656936bc22098aU, 0x3da0601d3d40d4f5U,
  0xbd84d6a7bdea8701U, 0x3d8daee6bc80bb3bU, 0x3d33ab75bd03a15fU, 0x3d0180e73c1af78aU,
  0xbe112df8bdefab65U, 0xbbdaadce3c93b184U, 0xbdbe12d23caa0171U, 0x3c6bc3bfbd8e5cf8U,
  0xbd4a8a55bd1bb0aaU, 0xbe0e3fafbd5ee504U, 0x3c5131d5bd979d6aU, 0x3c443a2cbda5f50cU,
  0xbde8b4c3bddcd119U, 0xbd267ed23bf7578dU, 0x3c253385bdf65305U, 0xbc885e2cbcd40f07U,
  0xbd399591bdfacb69U, 0x3cc1f5773def7a97U, 0x3d881bcabd416e5dU, 0xbb89d3d83bcc8331U,
  0xbcd36b733dc3de93U, 0x3d98b212bd5b0703U, 0xbd4a8aef3d6356efU, 0x3bb032103dce2aa0U,
  0x3da00e773d15a75fU, 0x3d72f672ba981ab6U, 0xbc273ed9bd40428bU, 0x3cd2d7c7bd549e0bU,
  0x3d8ac6fcbcdef9aeU, 0x3b2e4e043d3bf4e5U, 0x3d8c14323c60a288U, 0xbcafe9b9bc29e293U,
  0xbce85742bd7a32e9U, 0xbc2b3a0d3d87dc06U, 0xbc8678293da6fd88U, 0x3d6b49c4bd890396U,
  0xbd1d492abc596a84U, 0xbc0ae0d5bcdb627cU, 0xbc3f7d96bc96ffefU, 0xbd03da6fbd594cb3U,
  0xbd50171c3da5210cU, 0xbdb7236bbd35fbaaU, 0xbd536ac4bd7dda7eU, 0x3d898bc2bdaed7ceU,
  0xbbb482c1bb86e266U, 0x3d414430ba792b86U, 0x3cb7a2313d9444b5U, 0xbd159eba3d55255fU,
  0x3d93b2dd3d9d257bU, 0x3c5747fcbba6003fU, 0x3d28cc1cbd02819bU, 0xbd05df1fbdb2cdf6U,
  0xbaeb93863ce9758cU, 0xbd0f74bc3c515a89U, 0x3db879ba3d872caeU, 0xbbcbde2fbcfe666dU,
  0x3cda68b93dae77deU, 0xbd8c278fbc30358dU, 0x3d360c7e3c91cc79U, 0x3ca994d43d7a513dU,
  0xbd4b490bbdb09c89U, 0x3d8052ad3d12030bU, 0x3d46e365bc6b3db2U, 0xbd0975a3bbcb8844U,
  0x3ce33ab3bd23197bU, 0xbdae64d7bbedc359U, 0xbd0ce1af3d26bc49U, 0x3cbbdf7f3d0752faU,
  0x3d8a75b1bcba7dbeU, 0x3d8576a6bd7a96a7U, 0x3cda31c83d4b2937U, 0xbba3a05fbd957988U,
  0x3db7e2143cc0e78aU, 0xbd8efcbf3d3ba6e1U, 0x3d45ae4d3da8a596U, 0x3d8dbf5c3ba02c10U,
  0xbda14c983d85dd6aU, 0x3d2c45b73d4a4e4aU, 0x3d089bddbda14673U, 0x3d97e15fbc86194eU,
  0xbd1c4bb93b9e2eecU, 0x3d9752ea3d81ea43U, 0xbd76f5fb3da9e123U, 0xbdab4baa3d57a7a6U,
  0x3c97b1ccbd67819fU, 0x3d51002abc29b6c4U, 0xbdbaab263c5fb33cU, 0x3d3044563d2d4b3dU,
  0xbd1e53d7ba478fb4U, 0x3d537b2dbd8c3c7dU, 0x3ce17518bd59dc74U, 0x3cb369f6bda89919U,
  0xbc42285838fad53bU, 0x3d843b09ba839ad1U, 0xbcf1df00bc895e65U, 0xbda0e7f9bd8f1f03U,
  0xb9a4997b3d6bd0c6U, 0xbd0d18533d90b5b8U, 0x3c804d4b3d704a85U, 0x3ba34e7fbd1fcaf3U,
  0x3c2051503d60bb79U, 0x3d5a16d4bd3c6016U, 0x3b30dea5bdae23c2U, 0xbd83b3873c0d50adU,
  0x3c80391dbcc91fccU, 0xbd8c572f3c29f14aU, 0xbdbf8040bc804ee4U, 0xbce547753d97f076U,
  0xbcc706efbbddd5daU, 0xbd8ca68cbbef0269U, 0xbdc1ac62bc86b26bU, 0xbc2980febc086373U,
  0xbd286be13ab212bdU, 0xbdb5503fbd2983acU, 0xbdac8ae3bc07c4abU, 0xbd8b828ebd329a7aU,
  0x3d00c9d93d7d0905U, 0xbc27599b3d7e00f2U, 0xbd8e2ea6bd36c67eU, 0x3c9df8cc3c423674U,
  0xbcc8426fbceba705U, 0x3c96f3dfbb49f49aU, 0x3d8d7f683ab0e89fU, 0xbdae3ff8bd177385U,
  0x3c4bdc36bd5267cdU, 0x3d13cdbf3d8eb63eU, 0x3cd35e00bd29c015U, 0xbda5c094bd881867U,
  0xbd76fccd3d7f5a3aU, 0xbcbe51f5bd380683U, 0xbd30e16ebd25e59aU, 0xbd510e2ebdbe11fbU,
  0x3d6314033c96e1e9U, 0xbdafa5f83c01d0ddU, 0xbb9531873c0cb1d4U, 0x39ad1453bd9d4a3dU,
  0x3d75fdfbbd3c9f4aU, 0x3ccfbb3abc85d798U, 0x3c6ca5ab3cc25002U, 0x3d1929a93d478860U,
  0x3d14865ebda0e0b1U, 0xbd369e643d263d47U, 0xbd0ecc223d31b261U, 0xbd7f1c993d875cdaU,
  0xbd9d87873d6c4f5eU, 0xbdacd1993d8b7710U, 0xbd7eb616bd55d81bU, 0xbd959961bcc2a57cU,
  0x3d1247623c4d19beU, 0xbdbcde243d41ae1fU, 0x3c875b203d7c922eU, 0x3d7d50963c3c2717U,
  0x3d60bd373d2eec8eU, 0xbd81fb62bd876fd4U, 0x3cbf06433d4aeb1dU, 0xbd9793e33c83c622U,
  0xbd801142bd3dbea9U, 0xbd2dfb2ebd227475U, 0x3d84c7e7bd92f3f0U, 0xbda41bd93d1f71a4U,
  0xbdbf1a3d3ca930cdU, 0xbd295bdebca4426bU, 0x3d1f6b1c3c1acd25U, 0xbdb760203d59e30aU,
  0xbda840d1bc6813b0U, 0xbd6771a23d85db8aU, 0xbdb343493bc77fb6U, 0x3c0d3c6c3cee41d6U,
  0xbc61e1353d4621a9U, 0xbd5a97773cfbb8acU, 0x3d73d98f3d8209e3U, 0x3b0e6026bd6cc08dU,
  0xbd4dea003d8399e9U, 0x3cfed5843d7b38dcU, 0xbd527f4c3c4eef3dU, 0xbc3b7eafbd7bf09eU,
  0xbd906ddabd031845U, 0xbd074d2abd14cd4cU, 0xbbd09e8d3d133a76U, 0x3c87f255bc5af23bU,
  0xbd972f2cbcbcbfb5U, 0xbd8e15d23d800185U, 0x3d660e7fbd72fea3U, 0xbdb82d5f3d620510U,
  0x3c893821bd070d3dU, 0x3d8df54bbd58b580U, 0x3d7decfa3d750003U, 0x3d776ecebcdf6755U,
  0xbdb9df463cb3fa16U, 0xbd629e253c0aa3f3U, 0x3b38d36abd3238ceU, 0x3d3ab939bcd940e6U,
  0xbd143e243bf7e811U, 0xbd8c5a3c3d82bb18U, 0xbc6c8fccbd51076aU, 0x3d2444e4bd86414cU,
  0x3d818ba03d98c653U, 0xbd8fc391bd2022acU, 0xbd09706abc8369a5U, 0xbd282773bdb73327U,
  0xbc45ef9d3d2abd54U, 0xbd4d9eff3d75fffcU, 0x3d22ac723d33e71dU, 0xbd9aaec33d9c1d7cU,
  0x3c58c4c0bd52ada0U, 0xbce86ec83da07d73U, 0x3c2d3333bdb6d6faU, 0xbd3e48da3d8c9d2aU,
  0x3cb699093d7dca02U, 0xbda7880c3d69a976U, 0x3d528170bd3b4048U, 0xbda1b55f3d8ac52cU,
  0xbd420574bd067259U, 0xbda3a04cbd8a8332U, 0xbd1dce50bd790874U, 0x3cf5981d3d572f71U,
  0xbcf2ff663c689859U, 0x3ced8c9fbdb3a0feU, 0xbdbe8a3abd760a98U, 0xbd5a7761bd707acdU,
  0xbd50d930bd470e83U, 0x3d528ba2bc21ca9bU, 0x3d1836a23d8246c8U, 0x3ba792613d620a2bU,
  0xbdbcebb63cfe42edU, 0xbd105801bd961245U, 0xbd65453cbd939729U, 0x3d812659bdb54079U,
  0x3d85e7c03c3b7368U, 0x3ba3a408bd4164d4U, 0xbd90126e3d6a4ae7U, 0x3d90fa373d2b05f3U,
  0x3d907443bce14481U, 0xbd8dc1313d868119U, 0xbda66babbc39756dU, 0x3d88e861bd024c82U,
  0x3da9274e3d152ed7U, 0xbb2e410ebdb23588U, 0x3c924c873d25e5fbU, 0xbcc0275e3d6726a2U,
  0xbd98dc7ebd7671ebU, 0xbd997d77bc6a438eU, 0x3d2a55c0bbce4b7aU, 0xbda0e7b93d29d148U,
  0xbcd86f3c3cd8a09dU, 0xba25eab5bbca5c7dU, 0x3d0417d0bcf11aeaU, 0xbce5303abdadcd2cU,
  0xbda6be07bd7cb121U, 0x3cb04f213cc4d48eU, 0xbdb4733ebd38d260U, 0xbba609b53bc38e92U,
  0x3cee84293d8a2cb7U, 0xbd8710d6bd14bbcdU, 0xbda3e1afbd71d134U, 0xbcf1adc9bd639189U,
  0xbda8c93bbdbc3b42U, 0x3d1375f7bc40f559U, 0xbd8edadebcf6eec7U, 0x3ca3b0623d329403U,
  0x3d89d61b3d560bdaU, 0x3b231f4dbdaa27b0U, 0xbb12236abda68479U, 0x3d43f315bdbc1045U,
  0xbdac9e2dbcb6cad2U, 0xbd65f7b8bbee40a7U, 0xbd80ef693be75c4dU, 0xbce8c184bcefeeeaU,
  0x3cb6829e3d7de16eU, 0x3b2b5409bd168974U, 0xbd7ebf4a3d1f0861U, 0xbc2197063c65d51dU,
  0xbd8725163c10504aU, 0xbd81ce2cbcebab94U, 0x3d74de67bad0f01aU, 0x3d7c060a3d1bfec2U,
  0x3cdf823abd41bfb3U, 0xbd2ead823d079f85U, 0x3d88d2073c71d7c7U, 0xbdab119fbda14752U,
  0x3d5c76593d80af62U, 0x3c81982fbd7a09b2U, 0xbdc0863b3b2f47bdU, 0xbd5427f3bd426544U,
  0xbbf7e39abd4c17f1U, 0xbc86a49a3cd9360dU, 0xbcb4afa6bbae870fU, 0x3d9d8546bd0933c7U,
  0xbd87ad6dbc69ef6dU, 0x3b334f47bd990799U, 0x3c21f09bbc08a11dU, 0xbca642633d4310f6U,
  0x3d7a8f26bdacd87bU, 0xbb83592abd1615f5U, 0x3a8a3099bc13b32fU, 0xbd8f1700bcbb6999U,
  0xbd70671ebcee98f0U, 0xbbee55aebdb81a7fU, 0xbd86e2a63bf33392U, 0xbc044cb03c1d973eU,
  0x3d946079bd88512fU, 0xbda2aa7abcaa5345U, 0x3c5c2013bdb203d0U, 0xbd6759c63c9f95f7U,
  0x3d329972bc844215U, 0xbd81ede33d6ecca1U, 0x3d948dcfbd7a4a85U, 0x3d4c5cef3d525bdfU,
  0x3d680cb5bcd0b4adU, 0x3d73d7cabc2c26e2U, 0x3d508392bdb61abfU, 0xbd317e29bd7fbac6U,
  0xbcbcf931bcba6cf9U, 0xbda88660bd7ace5bU, 0xbd880cdabd801b6aU, 0x3b97c1a33d8ec1a9U,
  0x3b857faabcd18bdcU, 0x3d25adfc3d9f4694U, 0xbd6865b33c80a4faU, 0x3cdc759f3bdbd9c3U,
  0x3d3b4a663d85149eU, 0xbd31544fbd054cd6U, 0xbda79af13d8419a7U, 0xbc6ea45c3c996143U,
  0x3bee00f6bc8b212fU, 0x3d24cd38bdb70b56U, 0x3d42eaba3d071a7fU, 0x3d0c736bbda27a67U,
  0x3d2e241dbd14fa03U, 0xbd1207723cfcba77U, 0xbd5a240fbd96d64aU, 0x3c41401cbd6693a3U,
  0xbbc691533d83b715U, 0xbd1d4dba3d9796b3U, 0xbce869febd139f41U, 0x3d11e054bd46c5ebU,
  0xbd4abbbcbd48ce43U, 0x3c27af5d3d8f4313U, 0x3c55610c3d4d9bcfU, 0x3d82e95ebd7e5dbcU,
  0xbcb23287bc4b2564U, 0x399c4bd7bc3e1e8cU, 0xbdb942f13b00a143U, 0x3c6aabe4bbf1468fU,
  0x3d56ab04bd91b55eU, 0x3cc7c35c3d8dbc6cU, 0xbdaa74d6bd2c536aU, 0x3d8c13a0bd3eeb64U,
  0x3bc98f553bf8d5beU, 0x3d3544413d00e855U, 0xbb357032bcfaffcfU, 0xbd987ad3bc625fbaU,
  0xbcfdcfc63d6f75feU, 0xbd34e090bdba4d3fU, 0x3cd35524bd463afcU, 0x3c994011bd4c79dfU,
  0xbc0d6da03d16d73aU, 0xbdbc56c8bd45e816U, 0xbd1d8b54bd422674U, 0xbc9f92513d905df1U,
  0xbcf9bf44bd8bf5b4U, 0xbc3f3898bcc7ef15U, 0xbccdb5ca3d97b6f9U, 0xbd966fc9bdb79d33U,
  0xbc2ee0363cd07fb9U, 0x3d8354a83d942bebU, 0xbd59cdb1bd326465U, 0xbcdbd8613d8ca3e0U,
  0x3c90a3e6bbb9f167U, 0x3d5b29843d860141U, 0x3d4a913f3d9d162dU, 0x3d1609d73d3be52eU,
  0xbda3d1053d97841eU, 0xbd9a9a543c0872a3U, 0xbd259c8cbdb03a39U, 0x3d88697ebc693c7fU,
  0xba851948bc8fd245U, 0xbd88b48ebd8888b1U, 0x3da4c86dbd55a74aU, 0x3d566c0f3d68ad5aU,
  0x3c5b5e09bc71c856U, 0x3d8273dcbd093780U, 0xbd921f9f3c8e790dU, 0xbdb215f9bc9b19bbU,
  0xbb1cb271bdaa371eU, 0xbcd2c34a3d7f98a7U, 0x3da546c73daf5b50U, 0x3cfa07d8bd1344ccU,
  0x3d8786543c479e8eU, 0xbd6253f73ca96e93U, 0xbd64fa92bca75dcdU, 0xbd2f9b68bd1a8631U,
  0x3d24e5b63da669beU, 0xbdaab67b3d8dd1a4U, 0xbd0fd027bcd4bf25U, 0xbd942bab3c9df30dU,
  0xbbcb80ecbd3d70f8U, 0xbc74f1ecbd80e65aU, 0x3c2fdc943d41ddf5U, 0x3d3c37a7bc2d993dU,
  0x3b4cc0babc9a4a2eU, 0xbd4db09cbd14bd4cU, 0x3d6850fcbd88fc50U, 0x3caa48adbbf6db81U,
  0x3d0969333cd47f8eU, 0x3d2229613cfb73dbU, 0x3c3d86b9bceaf2d6U, 0x3cfabdc6bdb08185U,
  0xbd016ca0bd0f964eU, 0x3d1e94ebbd851865U, 0x3c7a86af3d8da473U, 0xbcdfb4a3bd9fc131U,
  0x3d2a3c633d1ead23U, 0x3d0f5c28bc53f547U, 0xbdb0c220bda0756bU, 0x3c979f92bda7558fU,
  0x3d17712b3cf473d9U, 0x3c5065f03d8d88b9U, 0xbd97b22cbdabf04fU, 0x3d68af8bbd410531U,
  0xbd2886ee3c25ed09U, 0xbbbe6fd93bd8e0f9U, 0x3c02b7853ca0972fU, 0xbdd45d5bbd6be069U,
  0xbd4d5de3bc243caaU, 0xbd0edd45bbd2213bU, 0xbcbcc2bfbcd30648U, 0xbd023d6b3cdddf66U,
  0x3cd8c0453d75c1b7U, 0xbb54b183be01db61U, 0xbd2612603c40b781U, 0xbd539bf13d2d1927U,
  0x3c92e7bf3e0baaceU, 0x3d6f1b143cbb4058U, 0x3db29e7b3db8c16cU, 0xbcbe4075bd8501feU,
  0xbcd26bc1bcfa253fU, 0x3d14e08ebb5220e8U, 0xbd584e683cdffa9aU, 0x3daf46123ce16043U,
  0xbce17be2bc9aff42U, 0xbda48dbcbd9efc11U, 0x3dc86a473db9764aU, 0xbd901d303d3671fbU,
  0x3cf257b93dabf60bU, 0x3db93506bded3ea5U, 0x3d9993d93d825560U, 0x3d518d70bd3efbacU,
  0x3d345090bd22e3c1U, 0xbc017758bcdd35d8U, 0x3cbcf8323d8b8b32U, 0x3d8673223dd323ecU,
  0xbd7c5c0cbc56fb22U, 0x3d7ed9cebcab0113U, 0xbc13a2153c3a0245U, 0x3c84fd6c3d797c3cU,
  0x3c7461b4bd5d124bU, 0xbd933541bb81f047U, 0xbd8b1ae7bcf6a8ebU, 0x3d2efbd83d6f8e2fU,
  0x3c086c503dac106fU, 0x3c70d25dbc87a096U, 0xbd597e753c3c1813U, 0xbc76daccbba1859aU,
  0x3d3e0ae8bd4f6343U, 0x3c4b2b7c3ab180d1U, 0x3d0bcb29bd928111U, 0xbc6d1f67bd55f1f1U,
  0xbd98c70bbd81b81eU, 0xbdab1e1ebdd407d4U, 0xbde3b0bcbbca6b07U, 0xbbf1513d3cef48b8U,
  0xbd7098c23d25d57dU, 0x3b911844bc8cf692U, 0xbce896cfbdaa20f4U, 0x3d0ad3f23c4aa1d3U,
  0x3ccb0b4f3b437e72U, 0x3e06339d3baea1a1U, 0x3c1ca0da3e0bf1caU, 0x3c30e50a3e3dae0bU,
  0x3d8b57e73dcfd4bdU, 0x3d765a1abcf3126eU, 0xbcc291353d26aad2U, 0xbcf4028fbbd45a5dU,
  0xbaf4e7833e045603U, 0x3ce0d51ebd727318U, 0x3d779de53d82db7aU, 0xbd1ed663bbf6181aU,
  0x3d377f643d76fed5U, 0x3c0dc668bcb3f7c2U, 0x3d571cde3dd24c6aU, 0xbd3a6db33bf65bf6U,
  0xbdc976bf3d8a2722U, 0xbd9c7ce43d30f1feU, 0xbc88a8313d50cfc4U, 0xbc5a49933bb5e7baU,
  0xbd0323913d2a56eaU, 0x3d84db9fba35f034U, 0x3da8c5e5bdaffbd2U, 0xbd5805cdbd033c5cU,
  0xbd2dbd333d841d80U, 0x3d4399e63d14c0abU, 0x3c984a10bd4c4a1dU, 0x3bca76cabc95209dU,
  0xbbd167a5bd09bc6dU, 0xbcd42213bd63b927U, 0x3df113ac3d9490e2U, 0xbdbeeea4bdb64bc8U,
  0xbd4bfe64bcb445b8U, 0xbc1cd6db3d4ae112U, 0xbdb89a8c3d5f78ceU, 0xbb1b4a80bdd40a91U,
  0xbdb5bcd3bd244de5U, 0xbd31db05bd8f30cdU, 0x3d1f1fc2bd07bdc5U, 0xbd04d907bd3fbdf6U,
  0xba2ae336bbccf6ebU, 0xbd0f4cb4bc90cf2cU, 0x3d1e5db8bd77704eU, 0xbdcaa210bd70d6eeU,
  0xbdbc55303c8d09cfU, 0xbd33e35e3c3e6ac5U, 0xbbb4027bbd8a493fU, 0x3b218676bce27147U,
  0xbcb312c63d6ef31aU, 0x3d970de2bd7519f0U, 0x3d80966abab3fa89U, 0xbcc371cbbd262a24U,
  0xbc2706c63cfd1e82U, 0xbe0314223d0050f8U, 0xbd3deb173dcea7beU, 0x3ca1f0a6bdc9b44bU,
  0xbccfdab23cdc15f8U, 0x3d35464b3a292e69U, 0x3d8408313e1d48c3U, 0x3d8d49da3dfcdb40U,
  0x3d8397e03e143bb6U, 0x3ce253193e142136U, 0x3d8f257c3d822501U, 0xbd04b2fa3dae20c2U,
  0x3dc2f34e3da58156U, 0x3c8b910bbd987464U, 0x3d60ec07bc6b3debU, 0x3dedef943d1d4d20U,
  0x3de872a73cec053fU, 0xbd0a1b83bd5a8084U, 0xbcbc40493d3624edU, 0xbe1be6fc3dd17aceU,
  0xbd76a2313da2ba52U, 0x3df144e0bd3a9deaU, 0xbd2dd61d3d3ca309U, 0x3b8a1c843dcaa466U,
  0xbbc530d7bc8f6103U, 0xbdee43203ca1a685U, 0x3d61bddf3d884f93U, 0xbddd651dbb2b8890U,
  0xbd7009fabd492a5dU, 0xbbefc3403d7195cfU, 0xbc0a396bbd84e0a1U, 0xbce7b72cbd0c6eb1U,
  0x3cc99d2ebce78377U, 0xbdf8a94fbd92d281U, 0x3d376147bdaf52e2U, 0xbdfbcad73d2f67ebU,
  0x3cddbd1abdaa62c0U, 0x3cc4d3643c147c7fU, 0x3c354fed3ca102dfU, 0xbc02b2aebd8a2586U,
  0xbc625a02bccaabb8U, 0x3cc20a95bd669c2aU, 0xbd9be8f13c569d6aU, 0xbdc8aec8bcb3d23dU,
  0x3dadc3a6bbe8ed8fU, 0xbd563e67bde9ba22U, 0x3ddf185dbd1df968U, 0x3d8b873f3d1fd9caU,
  0x3d9bac52bbb2708dU, 0x3e11e55c3dd522c7U, 0x3c2dbef8bbb06bd2U, 0x3d14025fbd18c72eU,
  0xbe2ac1493d85d63aU, 0xbca4b7d8bd5d214aU, 0xbd3f7266ba004e03U, 0x3dfccf4e3dbe48caU,
  0x3e02c7613cb2cbbcU, 0x3bbd06543d82109dU, 0xbd33959c3cc85895U, 0xbd8a4cd8bd3bc5a8U,
  0xbcd269873d946728U, 0x3de0ea163bf23418U, 0x3d9eec273db382a2U, 0x3d60c3d1bc5b0190U,
  0x3d94044e3ca7631bU, 0xbc8fda813df0352cU, 0x3e09a3bb3e10ddb6U, 0xbdd3a86d3d35c217U,
  0xbd8807963d2e93afU, 0xbc397a19bc67d3d4U, 0xbd6b0f253cba31c0U, 0x3b81aee63d0f1e9dU,
  0x3d289ccbbdaf3b07U, 0x3ce7cc7ebd0e125cU, 0x3bcbabb93c8afb1bU, 0xbd3464ffbd419ed5U,
  0xbd2bb30ebcabba41U, 0xbcb2a02fbc816a58U, 0xbda59208bd8abcccU, 0x3cf6d98a3ce410b5U,
  0x3da1803bbc9e06dfU, 0xbcb7ffecbce25d87U, 0x3cefaccbbd2f3488U, 0xbd862bfe3d73513eU,
  0xbdd08b913d396a5aU, 0xbd51d2f33c9f7dcdU, 0x3cd22ca2bbea3432U, 0x3d88d4603c88e271U,
  0x3ca5c1943ce490c1U, 0x3dce6d0a3c63bc2dU, 0xbbcd281e3cd0036fU, 0xbd7b8b00bd272fcbU,
  0xbcd297e73d3de3feU, 0xbdae334a3d2ef1dbU, 0x3cc7c7a23c8a5bf0U, 0xbdbda5713d70e44bU,
  0xbccda9ef3c47bfc3U, 0x3da022a53da3caf5U, 0xbda6f09ebd6d6f80U, 0xbd1705d1bdbcf1c7U,
  0x3d01fdde3d10bebeU, 0xbd8a269c3d201ef0U, 0x3dba510c3d905224U, 0x3dc1b70d3d8aa127U,
  0x3dd52e15bc1a0f1bU, 0xbc9e94973d5056d8U, 0x3d0da57b3d4407aaU, 0xbddac426bd20fabaU,
  0x3d847d623d36e28cU, 0x3d87f0f73d063704U, 0x3d2780ba3dbc36a9U, 0x3d81cbe33c9beef5U,
  0xbce9a6493dc5f27aU, 0x3b7a41693d6c0960U, 0xbdc0a38a3cd428a2U, 0xbd8ff635bd96eee7U,
  0xbcdf06f63d16faefU, 0xbd25ee60bb67db4bU, 0xbd4918ddbde3644fU, 0xbd6c6aa9bd846766U,
  0x3da12f203d419e4fU, 0xbc43742abc932c99U, 0xbd1fdd413d74418aU, 0xbd5482123d5e7e59U,
  0x3d9b6af53e036519U, 0x3d5d2e4dbdd92f45U, 0xbccc492f3d1f5140U, 0x3d5f0da03dd5c6e0U,
  0x3dd2511cbce56571U, 0x3d01411d3daf7b8aU, 0x3d6c7df0bccab019U, 0xbdd144193cf1860dU,
  0xbdac25c83d9f2172U, 0x3d6cc7b3bc19c1c4U, 0x3de314c7bbae1f3dU, 0xbd0be7b53dab6558U,
  0x3d83e0a3bd1620f7U, 0xbc9de5553d058e9fU, 0x3df343533d67f443U, 0xbe4500c63dafda78U,
  0xbc45b0bf3dd46683U, 0xbd434b76bd1eca07U, 0x3cd6f9dd3aa28afaU, 0x3d574fa6bbcde143U,
  0xbc8892ccbd0f2afeU, 0xbe125e16bdde0443U, 0x3dad5e28bcf3b6caU, 0xbe07aa9b3caf9cc5U,
  0xbda4324f3cd3945eU, 0xbd60f59e3bcc2fcdU, 0xbdaa90c63d1cd6ccU, 0x3d1dee0b3d462b78U,
  0x3d62304e3cb0d053U, 0x3b9e5b66bda79fc4U, 0x3da3eba7bcdfa256U, 0xbd65d3aabbb5a733U,
  0x3d9ff11c3cc7e2a6U, 0xbd816a463d2c2b6aU, 0xb95190d6bd8880ceU, 0x3bdaa0b33c960b02U,
  0x3cb799febd44789cU, 0xbdc9f9adbdeb4b60U, 0x3d26e7d73bc2bacdU, 0xbc5bcc6f3db3953dU,
  0x3d2dd27b3c930641U, 0xbc991f033d9a0f4dU, 0xbd8537403d197876U, 0x3d44fa3c3d34c5e9U,
  0xba20561cbcf6c34eU, 0xbda3f04cbb53f968U, 0xbdfef6053ca8d8d3U, 0xbdd737ae3c84da6cU,
  0xbde5b9e0be28c030U, 0x3bac06f8bd5984beU, 0xbd90e10c3bd77398U, 0xbd98a177bcfe1adeU,
  0xbda7d48fbcbb2f4aU, 0xbdfcde7dbde180f6U, 0x3ce25671bd78b0aaU, 0xbc96276ebb99cfd1U,
  0x3d48a31c3dc4d7f2U, 0xbcf99857bde855c0U, 0x3d9c82fa3da32f0bU, 0x3ba26d34bbf509b5U,
  0x3da7ee93bbadeeb2U, 0x3e09133b3d6e57eaU, 0xbc2510583dc093b4U, 0x3c60ba473dc389e8U,
  0x3cbf45153dfa69acU, 0x3c280dbbbd55e4f0U, 0x3d9c320d3db04996U, 0x3d5f2f8f3d6ca388U,
  0x3d8d737f3dacbcb8U, 0x3dd821d63d5a3a5bU, 0xbd58e5c93d88893dU, 0xbe2a8c3b3d39fe7dU,
  0xbd7efd0e3d7e88bdU, 0x3d953babbd7d8a27U, 0xbde5fb943dcbac8eU, 0x3d283fd3b9c9555dU,
  0x3d924c2c3de33087U, 0x3cf8f7dabdf14fdfU, 0xbd47fd833d534547U, 0xbe46354fbdbe3ce7U,
  0xbccfaaec3d6608cdU, 0xbc5c62fbbd11b099U, 0xbde664093dd1762aU, 0x3da0cfc83d00ef67U,
  0x3da993853db13b6bU, 0xbda22137be05c069U, 0xbcbbb78bbd0d6544U, 0xbd24adeb3c1361d3U,
  0x3cbe1506bcab3cc8U, 0xbcadf885bd25c663U, 0xbd340fabbd8c0dffU, 0xbb7ef978bd4d4e66U,
  0x3dd7a7c3bcaccf06U, 0xbd81d9cbbd81ef54U, 0x3d9686493e06cb8fU, 0x3d34beeb3be0b9e2U,
  0xbddcf2d7bcee85b0U, 0xbd4fc6683cf9066eU, 0xbdccd0a73d8651b8U, 0xbdac8a5f3d89211aU,
  0xbd8e382e3ccfb910U, 0xbd963e0fbc9f055cU, 0x3d7032cebd883135U, 0xbe116bb6bd3072b2U,
  0x3c948df4bdee5837U, 0x3c2f3956bd6247aaU, 0xbdc8feffbd49aa75U, 0x3d0dd59cbccbf79fU,
  0x3c9353363d9fc565U, 0xbd42d90bbdb2922bU, 0xbd8e8f01bd8ce52eU, 0xbd4c115cbd8d4701U,
  0xbc2869babd961b1bU, 0x3dbf33e6bda446d9U, 0x3d40ec91bd520c3eU, 0xbde3e4cabd1c0dc0U,
  0xbcd5a0983aa6e18aU, 0xbc48e2303e001027U, 0x3d42bb653dff3ea9U, 0xbdc0eb00bc70f57fU,
  0xbd2109863d76147bU, 0xbd54a0c0bde4896bU, 0xbcd3d4493d8cda65U, 0x3c0008e23d979285U,
  0xbcfe3c2a3d381fecU, 0x3da1811c3dd23a3aU, 0xbd0774203c04f669U, 0xbd102e7d3b56d49cU,
  0x3a8859713d9190b6U, 0xbd32bba6bdd007e9U, 0x3df9ea803b0e3e35U, 0xbc231e41baeb79d0U,
  0x3dce767b3db04103U, 0x3dc8a8cebd111ffeU, 0x3d2fcda8bd155ea2U, 0xbe11629dbd1afff2U,
  0x3dc6c6323d31a141U, 0x3daab7dbbbde1669U, 0x3d5b97a93de6f711U, 0x3d144f39bb4ff953U,
  0xbd17be2abc30c842U, 0x3d820069be0dd3f8U, 0xbdbe53003d239f79U, 0xbe14370e3d79b167U,
  0x3da407313de5bad1U, 0x3db187a83d203c89U, 0xbd250a283d54f161U, 0x3d5755583c823a1dU,
  0x3d461be4bbd0ed58U, 0x3d6ae715bbd8d418U, 0xbcdb360c3d3d0667U, 0xbe2002e73d141819U,
  0xbe07647d3cbcde19U, 0x3d085e9cbdb88f66U, 0xbd8f3dea3ddd42b6U, 0x3d4a7007bcef31d6U,
  0x3c93aa183d2178ccU, 0xbe1da97fbd9e2e65U, 0xbc14a2213d020c20U, 0xbcf0cf19bc444a7fU,
  0x3d0ace60bda185e1U, 0xbd91f6803d848c44U, 0xbdabfd243ca6e17eU, 0xbb9365c1bd950803U,
  0x3c332502bda1dbd9U, 0x3d6edf883d78e886U, 0x3d6932813d8a204fU, 0xbdacf2cbbda42159U,
  0xbcf0ac8f3bb0e972U, 0xbd939675bdabaf6dU, 0xbd44c6743ce0651bU, 0x3cf5b960bce82423U,
  0x3c0139bf3d84b0c8U, 0x3c439ea3bd9e79f2U, 0xbd8b26093d713f36U, 0xbd30dea0bd62119aU,
  0xbcbc27afbba564b4U, 0xbd64ed72bcf1ac86U, 0x3d80cac7bbe69ad0U, 0x3d4336043d58fb42U,
  0xba6e9e913d975450U, 0xbd8782b8bd4c3cfaU, 0xbd809db0bc598990U, 0x3d62bf7bbd720b31U,
  0x3c99144f3c81ed67U, 0xbc92904bbd6090b9U, 0x3ca35a103b877f9cU, 0x3b00004cbdbb1e96U,
  0xbd444a183d911e26U, 0xbd0a3b083ceabe27U, 0xbd461d54bcebccb5U, 0x390ad2ffbd83447fU,
  0x3d4fd916bc9cafd7U, 0xbdab80383d83b20fU, 0xbd453fc5bd701c5eU, 0xbd9492483d5aa6cbU,
  0xbdad81abbcb468a1U, 0x3ccdea283d8f39b2U, 0x3d92fc933d4ba524U, 0x3d01c2f8bd9fe141U,
  0xbd4d15ffbc57ae1eU, 0xbcdfe1c2bd060ff8U, 0xbb06b112bbaabaadU, 0x3c9db46b3d1f9c72U,
  0x3da634c3bd9f2a9aU, 0x3d592406bd8a62e7U, 0xbd08acb43c34ee54U, 0xbaab28a8bc7a1a1dU,
  0xbd6ca347bd591759U, 0xbd34fae53c4c5b62U, 0xbcec534d3d993e2bU, 0x3d412e843ba5dd99U,
  0x3d18a46dbc4d0278U, 0xbdab274abd5cfce6U, 0x3d389477bd7b9b86U, 0x3c9cde8ebd676c96U,
  0xbd6297753c10aa92U, 0xbb389830bd8f4ba4U, 0x3cafd96dbdb3e031U, 0x3bed3925bc4796d0U,
  0xbdb675433d5a41c0U, 0xbcaccb1fbc901d29U, 0x3c7c66c2bd903d74U, 0xbc94ccaabd3db755U,
  0x3b770f8bb99ea818U, 0x3baa0f1b3d54292bU, 0xbd79b7c03d860e85U, 0xbd19fe1abd54e0d8U,
  0xbb5245673cfe0251U, 0xbcf22e0d3cba895eU, 0xbae7bc2f3bbbe5d6U, 0x3c2eca26bd422bacU,
  0xbd85fd8cbd4e3853U, 0x3c370dac3c8a1398U, 0xbcde4f7b3d1e2841U, 0xbcda5f3a3ced7b41U,
  0xbd85cd2a3d256644U, 0xbc9cade33c83c51dU, 0xbd265626bd9252b9U, 0xbdbd4f1cbd025409U,
  0x3d7988543ce7ab13U, 0x3ce75125bc9a6ea5U, 0x3d28b7f4bcdea50fU, 0x3d3c3b70bd82c20cU,
  0xbda6f9e0bd0a8367U, 0xbc1da269bbb94a7eU, 0xbd454424bc2930c1U, 0xbd50c4c73d3a3d3fU,
  0xbd9a52c6bba8ef7dU, 0xbca4fdf13c267c4bU, 0xbda308913d2df599U, 0xbd71e324bd65e3e0U,
  0xbdaa95eb3d7dad98U, 0xbcbf421b3d993440U, 0xbd966a86bd3740fcU, 0x3cbee0bbbd5f0b7eU,
  0x3d739646bcd11ed2U, 0xbc77148e3d22a719U, 0x3cb8db99bcaf153bU, 0x3d92434d3a78804eU,
  0xbbf54a1ebda2c5aaU, 0x3b983c38bca6b8d4U, 0x3d805b6abd24ad45U, 0xbb2132a53ceddb43U,
  0xbdb5b9043cd67180U, 0x3c9e1971bdbd383cU, 0xbd47c5f03d9c2260U, 0x3d903e74bd2d28d3U,
  0xbd9b5364bd94be57U, 0x3d353739bbef96f8U, 0x3d591ecf3cc1f69eU, 0xbd8305babdabd876U,
  0x3d22b4603d23651bU, 0xb83f702c3cce4010U, 0x3d08eb65bd6d9339U, 0x3d2078243bf911f9U,
  0xbd8967613d3608ecU, 0x3bcc3b99bd203167U, 0x3be487233c6a7bf8U, 0x3c59237dbda478c1U,
  0xbdbb2cb1bd472cdcU, 0xbd793c67bd5eb01dU, 0xbdbd18933d0cef14U, 0x3b5ddfb3bc313a24U,
  0xbb53ffd7bdb8c3fcU, 0xbdb9bd9abb413b07U, 0xbd0bcacebd8a7ea3U, 0x3c3b7bcabc7b0fe0U,
  0xbd7682633ceebfe6U, 0x3cf9d695bd9da03eU, 0xbd02c5e33d171842U, 0x3d477cb83d27d53dU,
  0xbc011838bd86ce23U, 0xbd501c493d0366deU, 0xbc39e7743d90dc70U, 0x3d8fd5cdbd9188b5U,
  0xbd936512bd9a2ca7U, 0xbce1914a3ce2d421U, 0x3d4047633cfc9824U, 0x3c9ce5cebc637e96U,
  0xbb950670bc9d67b3U, 0x3d591e513d912c72U, 0x3ccd3571bd56a90bU, 0x3d03e8743d5f73ccU,
  0xbdaaa747bda78ec1U, 0xbcd4212bbc6622b6U, 0xbda56ee6bd9aef43U, 0x3d8b1a403d78510fU,
  0x3d43f989bd861e6fU, 0xbcddd92e3c746e0aU, 0x3c35809cbd964e49U, 0xbd4707e8bd6e3baeU,
  0xbd404793bd17f759U, 0xbcd337adbd9eebf9U, 0x3b124f6bbdb0109bU, 0xbccd58eebd4c8980U,
  0xbd5f2986bdbc8cf5U, 0xbcc97b123d41f469U, 0xbd448bb33beca0eeU, 0xbd7d0136bd022434U,
  0x3c9a7f27bcbc9ea8U, 0x3c74ae75bd44c835U, 0x3d016bedbcd84519U, 0xbcd4eea33d3c4243U,
  0x3c409071bd3a35d2U, 0xbd33de91bc862df6U, 0x3c38d7ab3c696441U, 0xbbe36755bca313e1U,
  0xbd8a98c0bc7c2eceU, 0x3d80175f3be7fbebU, 0x3cb59ca23d0a6d3cU, 0xbd9c1c1abdac40a4U,
  0xbc0887d63bbead5bU, 0x3d1beda1bd89b3bbU, 0xbd2654bdbc7048d8U, 0x3beb219e3c6cf651U,
  0xbd8755c6bdc3d53fU, 0xbd1ec964bd29bfd5U, 0xbd3de49d3d617f96U, 0x3b5bf0f0bc5931abU,
  0x3d542ddfbc9a90bcU, 0xbdbd5b333d058327U, 0x3d55088d3c847b85U, 0x3d315bce3d8cc4feU,
  0xbd4286fc3d1c718eU, 0x3b8106233da65b33U, 0x3d6765f0bd1499aeU, 0xbcf7afe6bcac9f10U,
  0xbd096053bdabcbd5U, 0xbd7a172d3d5727baU, 0x3d5ec3033d3ea2c4U, 0x3d35978abd9abf32U,
  0xbd7e3d86bca15691U, 0xbd95676c3d92b6a1U, 0xbd65c29a3d7f99c5U, 0x3b608e25bdb5261bU,
  0xbc9f0a873d0408d6U, 0x3ce65d57bc3b8288U, 0x3cba0d0abcec3ae3U, 0xbda0306cbbef1902U,
  0x3cdcef09bcef53f2U, 0x3d7d81d3bd7c3ab2U, 0xbd6bc44bbdb034f6U, 0xbdad3cb0bc1df015U,
  0xbd81fccb3d846b77U, 0x3d29a0f33d4d408dU, 0xbd2561523d7c81ccU, 0x3d5521233d1b0520U,
  0x3d5c545a3d8694baU, 0x3d12e9e93d56d01aU, 0x3c864af3bda3b3ddU, 0xbd4159ed3b6fdaf8U,
  0x3d62a710bbeab441U, 0x3b2e0c4f3b71d585U, 0x3bb6aea93d79278fU, 0xbdbdec48bd9dc6c3U,
  0x3d3a5cd0bd61b9b7U, 0xbd9bc6d6bd8a9f72U, 0xbccbf1f03d62bbb5U, 0xbd3da8983d60fd12U,
  0x3d96e3a7bd937011U, 0xbd84d360bba95293U, 0xbcdcfac4bcaa9614U, 0xbc318587bda3f22dU,
  0xbdb089cfbd2fefe5U, 0x3c84662bbd311ca4U, 0x3d4bb67bbd6c7d57U, 0xbd8c493e3d91a5deU,
  0x3d73e89abc750c8eU, 0x3bd8a0a63d596409U, 0x3ce48c9ebcf6a32bU, 0x3c87aa143c3c55dcU,
  0xbb3f5146bd754f09U, 0xbd4c679b3d83b9b9U, 0x3d932ee7bd8d29e0U, 0xbdc02d853d529c23U,
  0x3c9fc5b8bd465a99U, 0x3ca3ca7dbd2312e0U, 0xbd3b1e83bc879f0aU, 0x3b13e251bd919c1eU,
  0xbb988a393cbe38efU, 0xbbca5cb0bc0eece5U, 0xbd829c30bd9a8e59U, 0x3cf273c4bda3a506U,
  0xbd04b443bd65e5a5U, 0x3d94f3b8bd976862U, 0xbcfe51e1bd9fb542U, 0xbd72405d3c8bc3f6U,
  0x3d2fb6ac3c3d420dU, 0x3d548d083ce4ad23U, 0x3d1327f3bd759daeU, 0xbda40c2bbd8574d9U,
  0x3d874e99bd471d8eU, 0xbd57fc233c5fadbaU, 0x3c3f4c32bdbce0fdU, 0xbda907f9bc2963e2U,
  0xbc9bb333bd8e8b93U, 0xbca4e0acbcc68dcaU, 0xbd8f6706bd78e565U, 0xbd9e876ebd239877U,
  0xbc0486d1bd39041dU, 0xbd09e5d13b4f6a9bU, 0x3d83445e3cd1e641U, 0x3d73f366bd5fc45cU,
  0x3d87b90fbd9fda63U, 0x3cafae35bdc55e73U, 0x3d8966cbbc440060U, 0x3d7543c2bd8c072aU,
  0xbd95fa1abce59df1U, 0xbdaa3d3f3ce31443U, 0xbd882399b69961fbU, 0xbda82bacbcb74a4fU,
  0x3d2c123e3d436c38U, 0xbd591a88bdb6d4fdU, 0x3cdd47313cf7b933U, 0xbd38a7583d836997U,
  0x3d78affebd549786U, 0xbd3c67963d8b44caU, 0xbdb8f53b3c4004b1U, 0xbc84a1063d804287U,
  0x3d1302073d2f69e0U, 0xbd3390a8bcba4a53U, 0xb9f250f1bb6986d5U, 0x3d3bb6d33b90b702U,
  0xbd8d2524bcca6dd5U, 0xbba0e254bd41c8ebU, 0xbdb3f36ebd964a76U, 0xbda59da43c39e64dU,
  0xbdb4b2da3d8020acU, 0xbd745d803cf27a09U, 0xbdb7654f3d19580aU, 0x3d1f271c3cd3636eU,
  0x3d1d5ba5bc31c39bU, 0x3d4851d6bda71b4cU, 0xbc0acce1bd942a01U, 0xbd309e9abd4e4070U,
  0x3d7d2713bd8e6c1dU, 0x3c858e2d3c9b7f1bU, 0xbc80d5f9bd50a23dU, 0xbd816b10bd5bf189U,
  0x3d912ac9bb7d2cb7U, 0xbd0ac4c83bd9034eU, 0x3d742ee03d1ce622U, 0xbd6868403c0683c7U,
  0xbbabf3ff3d5c9890U, 0xbd32ff24bdbd128dU, 0xbc2d1fd2bdb0a404U, 0xbd84928a3d46d1e0U,
  0x3ce0df373d0003f7U, 0xbd2f2e36bd93683cU, 0x3d23c9783d633cd6U, 0x3d626af8bd393034U,
  0x3d84e9fabb8b914aU, 0xbda7ed50bcfcaf03U, 0xbd58f074bda53d34U, 0xbda0df13bd6276c3U,
  0xbd3a5dcebcf8515aU, 0x3cd6a5133c482644U, 0xbd5de3943d56c09fU, 0x3cd67cca3caeba5cU,
  0xbcfe8c763d96393dU, 0xbd20ea58bc669ab1U, 0x3bfbb09c3bbb79fdU, 0x3cf815bd3d0b7547U,
  0xbd2374e7bc415065U, 0xbdbd9c293d8b094dU, 0xbcc869eabd27273bU, 0xbda38936bd93b3d2U,
  0xbd04dc9cbd94fca0U, 0xbd9e30c43cf7d2faU, 0xbd9b8888bc9ae776U, 0xbbeab753bc6cc3b2U,
  0x3d965fe1bc6c4f3bU, 0xbda1ac81bd2a2ecfU, 0x3d169f4fbd2ca49aU, 0x3d788bfebd65e6d6U,
  0x3d520229bcb47facU, 0x3d63abc2bd898c39U, 0xbda3893f3daa1a8bU, 0x3ba24d303d038d3aU,
  0xbd83de45bbc520c7U, 0xbd7beb7b3d03aeefU, 0x3c94f276bca90bb8U, 0xbd51d5f53d16fdeaU,
  0x3d02a92dbcba5675U, 0x3c513d533d295678U, 0x3c9f09103c8798ecU, 0xbc1814023d6db8a8U,
  0x3c2b821ebdac31e8U, 0xbd8acc61bd095814U, 0xbd96bf9fbda3f682U, 0xbd2de2e2bc6380f0U,
  0x3c2988883cced86bU, 0x3cd2c3a33d54d404U, 0xbd25b2fa3c4bd88aU, 0x3d2f58e3bd2d7e8eU,
  0x3d4ad3963d3d1036U, 0x3c9ab138bce0a516U, 0xbd1357f2bcb81a78U, 0xbd95a493bdb18b3bU,
  0xbd738abd3d8f3f0cU, 0xbd98f98f3d5bc0f6U, 0x3d82f11b3b828a60U, 0x3d83d001bd770b60U,
  0xbd873284bb3d817aU, 0xbcb0edd1bd3367bdU, 0x3d8a83aebc8d3d59U, 0xbbc3b9133d8b44beU,
  0xbda0fe7abdb85966U, 0x3d2765d63d330bf1U, 0x3d016b8b3d79a0a7U, 0xbdad75423d156a81U,
  0x3b8a238dbd628c7cU, 0x3d04fe0e3d1e84c0U, 0x3d8e8667bd38f832U, 0x3d64c38c3c0764bdU,
  0xbd16ec103c82aa97U, 0x3d50fedfbd740bbaU, 0xbd9cdda3bd80ea55U, 0xbd6644ea3d666584U,
  0xbca2cac43d46b5baU, 0xbdb06a323cd5bc78U, 0x3d234dc73cf3b6c9U, 0x3d9ec89d3d28f584U,
  0xbd88a1853d11f873U, 0xbd295e043c97a69bU, 0xbd1776d83d69ee02U, 0xbd9eadae3d9c1684U,
  0xbd9ad694bd8c87f0U, 0xbd20554cbbe1107eU, 0x3d69f0c2bc8bb97cU, 0x3ca7d78a3d74cf97U,
  0xbdc8202ebcc25abfU, 0x3d918efc3d044aeaU, 0x3d05e792bbbccf60U, 0xbdc4a4ee3ccf5790U,
  0xbd124df13cfea384U, 0xbd303e06bd556ce0U, 0xbd8b0adebcfebb41U, 0xbdbcbf43bd11c1dcU,
  0x3c52dc05bce04198U, 0x3d095043bdd8c02aU, 0xbd04c4143d41fb52U, 0x3d8381bb3ddb3920U,
  0xbd82fc123cb532a9U, 0xbc4aecb1bc9b4068U, 0xbc8cdbab3d73a5f3U, 0x3e0245a73d9837c9U,
  0x3d4a1ae93dc973deU, 0x3d9e8ddabdf59baaU, 0xbcdf49913dad7875U, 0x3b4748bb3d468d08U,
  0xbd1039cebd99c463U, 0x3cc13377bdff592aU, 0x3d37aa1d3e1a366dU, 0xb97c2e3ebd1e212eU,
  0xbca4773e3caeb426U, 0x3d811dc7bd5bba1fU, 0xbd212c50bda7b032U, 0x3db13148bd220e25U,
  0x3c720d7bbdce97c8U, 0x3cfdceeabd9afb96U, 0x3d1d7eaa3dc86b3fU, 0xbd1637ef3e892da1U,
  0x3d70f687bdeb0ef0U, 0xbda1ecf43d11f13fU, 0xbd83b1083ba05e40U, 0xbb1bbfa73cc89ae6U,
  0xbdb756cebcdbc676U, 0xbdc65b14bd065ed8U, 0xbdcad7be3d076f6fU, 0x3c04ffd83d874fd4U,
  0x3bab0272bc75ad1cU, 0xbda66128bd944ac7U, 0xbdf07643bd958186U, 0xbd663c283cbd9f52U,
  0x3cd53bd5bdc76c0bU, 0x3d31c0b0bdb3dc58U, 0xbdae2df1bd1130b8U, 0xbc49e87dbdd5cf28U,
  0x3d4c33223a39101bU, 0xbd6a06023d0b39a0U, 0xbcd97e64bdec6e2dU, 0xbdc1ad81bc9f72deU,
  0xbd8d2b2cbdea2cdaU, 0xbdd44f8abdceff94U, 0xbc78bd1dbdf95d4bU, 0xbde712b5bdd5ac26U,
  0x3dc3f4453d3d94fdU, 0x3dbd2852bd902782U, 0x3d4fdc773d415a30U, 0x3e09c19e3d72d9d5U,
  0x3d30b4cd3dff2ea8U, 0x3cd5ffa7bd36d9d3U, 0x3cbae8403d7e1ae4U, 0xbd23a857bcdc1715U,
  0x3d4be7163d862b9fU, 0x3c4b24623de9fcb4U, 0xbd128834bd81af40U, 0xbcea1f4d3d9e2b07U,
  0xbd8e4ff23dd2c068U, 0xbb5558403d21d872U, 0x3c49060abc263adeU, 0x3e092480bd285628U,
  0x3d721b73bc78bc23U, 0x3ad00a483e5bacb9U, 0x3d808ca73da0d0ffU, 0x3cd47d3e3db5eafaU,
  0x3d73cb5a3d1b804eU, 0x3e258d2f3c7587a1U, 0xbdcb6c463d9f9e9aU, 0x3cb7eee0bd4559acU,
  0xbe21175dbd247a65U, 0xbd31be633e21f577U, 0x3d4b3031bcdabcc9U, 0xbbffcf01bd7bc3b0U,
  0xba3604b2bd0d9b85U, 0x3e0aa7713e00828cU, 0x3da05ca83d4bf3dfU, 0x3d3449133bc2bbefU,
  0xbd5b0d6e3c2347aaU, 0x3c14a072bd20b006U, 0x3da829ccbc2bcfe1U, 0x3b849a54bdb13ecaU,
  0xbd748d46be2327e7U, 0x3dd293113c25a1edU, 0xbc417e1bbd6d3fc7U, 0xbd3641c5bdda4669U,
  0xbd3104f6bd6e94bdU, 0xbcbef2d93d18aa0dU, 0x3d7eaf08bd2c013dU, 0xbcccf5573d11ad92U,
  0x3cbe3c33bde67541U, 0xbce29c38bd40a997U, 0x3d8f84a4bd935f16U, 0xbd6e0fe5bc5030e5U,
  0xbc30569abdee761fU, 0xbd1a2f93bdd40d25U, 0xbcaf9734bca9f1cbU, 0xbc5f55d43b2f8594U,
  0x3bb836613d2204caU, 0xbd8a6fc23d58b286U, 0x3d8ab20ebdabedcdU, 0x3d993c3f3b42fa38U,
  0x3d229f003d2ed9a5U, 0x3cffda35bd037583U, 0x3dc0a44fbc17c049U, 0x3d59e5873d0ab311U,
  0x3bba77babca58070U, 0xbd7a977c3dc937a2U, 0x3dbc0734bd1a269dU, 0xbd968d2cbc43f489U,
  0x3e138dc83d342781U, 0x3d8c3047bdd752d7U, 0x3d7bf800bda90081U, 0x3d9af080bd6842f9U,
  0xbddaf7fb3d7815b0U, 0xbd89a93b3d7fde15U, 0xbcaa9d9fbd82c781U, 0x3e0992da3cd26dd8U,
  0x3d523416bd4a99f0U, 0xbd45884bbd957191U, 0xbccaa3143bc8e265U, 0x3c2c7aa53c8c3955U,
  0xbd393f983c77106dU, 0x3e170e833e05d8faU, 0xbc21a858bc4e4771U, 0x3dce216bbd30c150U,
  0xbd4515a63d967c79U, 0x3d8e6e89bd20e1d2U, 0x3db17d98bd85839eU, 0xbc3483adbd0f37f2U,
  0x3dd1336e3cba211bU, 0xbd018d4a3cb4bc44U, 0x3d3a71ca3db26854U, 0xbe371f523d3def40U,
  0xbdeff7d2bd8fd891U, 0x3b70b7b2be46d198U, 0xbc57a3c23d2beea2U, 0xbd0b987fbd4ed341U,
  0x3d41216a3d8e6d21U, 0xbdd5e85f3c213b52U, 0xbd11854abd8272a7U, 0xbe25236c39c4154cU,
  0x3d51c74ebc881f95U, 0x3d803660bda20a5eU, 0xbd94444a3dca0a18U, 0x3db86d263d018574U,
  0x3de63caa3d96e150U, 0xbe5070babd8bc810U, 0x3da89f283a3f417cU, 0x3c3804b0bd9a076eU,
  0x3dd0e9c03b4d34a4U, 0x3df7eefb3ce19f87U, 0xbd61e71d3e04d331U, 0xbbcc7da03e0f4911U,
  0x3e0c892cbbd5cceeU, 0xbd3f9f363d726e1cU, 0x3df34e5f3ce7ee7eU, 0xbd8a9200b7a046f0U,
  0x3d8734193ca8d5d8U, 0xbb9819e7bbcc68bcU, 0x3d91f5873e158268U, 0x3dcb51ae3c845801U,
  0xbc199fc73d5e5074U, 0x3d19e8d5bc84253eU, 0x3d064212bd0325b7U, 0x3d8c7a4abc767fb3U,
  0x3d89fef33d747f7aU, 0xbd865bce3c1dc98aU, 0xbdb1403f3d82ca10U, 0x3db03b103cb7f9e7U,
  0x3ce9dfa33d9581ceU, 0xbce50e6b3d3d517fU, 0x3da425abbd55be9cU, 0x3e904d7c3cae8818U,
  0x3d99625abd959358U, 0xbd084ec0bdc0e153U, 0x3d9885a8bd83da6aU, 0x3d005851bd13e7e2U,
  0x3bc32f7c3da6e49dU, 0xbd92be703d7b66eeU, 0x3cbb71d43cf91d06U, 0x3e104a19bd21878eU,
  0x3d7d60bcbcaa5e40U, 0x3db7ddba3d72ecabU, 0xbc42cf3ebd1bddc6U, 0xbd90b6413d80c0f7U,
  0x3d4961c53de43106U, 0xbd7d3cfa3da06093U, 0xbd933c8d3cb3cbc0U, 0xbd1699d83ae38243U,
  0x3cbf6cfb3b4dd459U, 0x3db27f3dbe79c0a5U, 0x3ce1e0ae3c1889b7U, 0xbdac6297bd28df26U,
  0x3d294e5cbd3dfb86U, 0xbd36c972bd6bef08U, 0xbdc51a79bd2347a5U, 0xbd8469dabcc7177aU,
  0x3e35a6c03dc71432U, 0x3dd8a9f73cc580b3U, 0x3cc0be353cf4373cU, 0x3d5853843ddbdd3aU,
  0xbd88931d3d566d47U, 0xbe1dc2013d41b9fbU, 0x3d9e4befbd79efb2U, 0x3da904f43d7008a9U,
  0x3df2be9d3c8bded8U, 0x3cb6337bbd69fc5cU, 0xbdacae8d3d0c81f8U, 0x3b6488bbbd0dca46U,
  0x3db0a3303d2a6b62U, 0xbca882b6bd31ca9bU, 0x3d68f9113d8befecU, 0xbcab21f2bd4177ccU,
  0x3d22b6d0bda24a37U, 0xbc7c5b483d53f325U, 0xbd548372be0abd1bU, 0xbdabe429bd9a314eU,
  0xbd06882fbdc9850aU, 0xbdd6a71cbce0a195U, 0xbbfcb5873daddca8U, 0xbe32100abcc4e12aU,
  0x3dbc4c79bd4121cfU, 0xbbc8e1c2bd7e2897U, 0xbdc51f4cbd59f062U, 0x3d48ef543c92eb14U,
  0xbcbc37043c0fa151U, 0xbdee9acebe1bc836U, 0xbc9c4eb9bca19ac0U, 0xbc294e5e3d92137fU,
  0x3db23af23d115325U, 0x3d8e28d2bbb3a956U, 0x3cf46c5fbbde276aU, 0x3cedaecb3d0d0835U,
  0x3d2eb8b93c8078d6U, 0x3da77c193c86f0cdU, 0x3c05e941bc964d76U, 0x3e53d4003db568bcU,
  0x3d82a6b73c83cc4cU, 0x3cf48b8cbdea1d44U, 0xbd0e77383d1d744dU, 0x3d2510393d91dda3U,
  0xbcd771973dc12e1bU, 0x3c536ec83dd8594cU, 0x3db94a733d8657afU, 0x3dd472fcbc78ba9bU,
  0x3c9ea340bc20d2b2U, 0x3d90ee26bdd702f9U, 0xbd8f3c02bc222cc2U, 0xbda745dc3de1f1fdU,
  0xbd1b2e0a3e129c65U, 0xbc0c1430bd0524a4U, 0x3bd9b1f63c2e3680U, 0x3e568f743db35209U,
  0x3e4db69e3dc1cc23U, 0x3daa6ecfbe0e7f25U, 0xbcc10e883d5abb59U, 0xbde8f753bd100d81U,
  0xb80efb02bc7a27b6U, 0x3d95ed49bdeb191cU, 0x3d4023713dcc4edcU, 0x3e32294d3d0ae654U,
  0x3d4473043d2be158U, 0x3d3c1bfebd880e56U, 0x3ce71cb0bdae7855U, 0xbe0492ffbdf9519fU,
  0xbe2ee8c2bcec56faU, 0x3da1caa2be09ef52U, 0xbdd1f9b33db73dacU, 0xbe5b79973decce34U,
  0xbdf133d9bd88feeaU, 0xbddff492bd3232deU, 0xbd83a1a0bd679c3dU, 0x3da6eaa2bd51386eU,
  0xbc97d445bd061febU, 0xbdc53a4f3c8e6e9eU, 0xbd4e4daabde189c4U, 0x3c82042ebe12a8d8U,
  0xbdc982013d20b4a9U, 0x3cd9ffbabc0af519U, 0x3d5be1623d79c3d5U, 0xbd07364bbced4b40U,
  0xbcef0eae3c4516cdU, 0xbd9a7367bd4371beU, 0x3c6af4b73c650f34U, 0x3d4d0fbfbdebe96bU,
  0xbd799b633ad82ac6U, 0xbc2bc73c3e07fbd4U, 0x3d90e0aebcc32d05U, 0xbd5f5570bdbd6640U,
  0x3dfd6c5a3c883c7aU, 0xbd1ed0e7bd0535d3U, 0x3d8f7afc3d8fdcc3U, 0x3dea03ef3c014652U,
  0xbba3184b3debc075U, 0x3dc6d8323de7ccf9U, 0x3d861725bc5d8b72U, 0x3d46b4823c57985bU,
  0xbbb3e6293cf0dc9cU, 0x3d790dc23dbb5495U, 0x3e01feae3d7c7eebU, 0xbcbd807c3e0564bbU,
  0x3d9c87033d92bc42U, 0x3c9bf084bcb18e5fU, 0x3c8dc4a83dc93761U, 0xbd6c4b433e02b3d3U,
  0xbdef9fa1bcdb88f5U, 0x3d8f55eb3d7aa477U, 0xbddf5e2f3e02f574U, 0x3e427e003e1a410cU,
  0x3d6f23debd63de75U, 0xbcbd29bdbd933cf4U, 0xbc7878053d69e6d5U, 0xbc6b07ec3da4a656U,
  0xbda2a4a13d1fe0d5U, 0x3da3b17f3dff264dU, 0x3c26b6ff3d84cc9fU, 0x3e14e66ebd215caeU,
  0xbe5bcf0dbd24dad9U, 0xbd37cfd0baf51808U, 0xbc11b561bd567c86U, 0xbe1fa615bde728c9U,
  0xbdbd45e7be06b4b2U, 0xbe210fde3dff5648U, 0x3d0ba7a6bde554c8U, 0xbdc3c960bdb67e41U,
  0x3d8870fbbd468565U, 0xbd3054cb3cb229ccU, 0xbdb61874bd1bcd05U, 0x3ca491bd3d36b80aU,
  0x39bc06c3bd798b2dU, 0x3cbed2e6bd09b071U, 0x3d7af5343d9f9ab5U, 0xbd3a33613d86d6caU,
  0xbbde882f3d36dcb3U, 0x3dbe43b6bdd37599U, 0x3c4a60723d4c9c42U, 0x3d5776d93e03d9e3U,
  0x3d83796ebdbe1667U, 0x3b5be9c9bd7e312aU, 0x3b67d0fd3c2c5897U, 0xbe037f773c0a8003U,
  0xbc3738033d9637e0U, 0x3da93dc7bc3144edU, 0x3d5a49a33d9ec259U, 0x3e09ecb23e0a0271U,
  0x3dc0a9513d766956U, 0x3dcbaee7bcaa014cU, 0x3d65da8dbd400fb3U, 0xbd5947a63d020d94U,
  0x3d4eec80bd6b1cd9U, 0x3d2bae3b3ce9d518U, 0x3db024763e2da7bdU, 0xbd611e3e3cab5d6eU,
  0xbdc3ce71bd0e9827U, 0xbc68ce923c29fffcU, 0x3bd483f93c08aedeU, 0xbe05dfcebda43ac3U,
  0xbc43670c3c574ba0U, 0x3d5a88c2bdabdec4U, 0xbcdfa1153dd57d2aU, 0x3c76a9e3bd64dca7U,
  0x3d5b04663d7b9a95U, 0xbc4370a63d951a35U, 0x3e1d163e3d870027U, 0xbc9cf6d8bc847c15U,
  0x3dabb60fbd2d090fU, 0xbd84578bbdb1e181U, 0x3d545d2a3dbe9380U, 0x3d0399f53d9e609fU,
  0x3d2f2289bd07fdebU, 0xbcc9eeb9bcfe7ec7U, 0xbc7b06753dcc3ff3U, 0xbde1ebfdbc4a6a9cU,
  0x3bda8f68bcaafb82U, 0xbd470ca3bd03da56U, 0xbd24896ebcd47eccU, 0x3d06d4be3c8c27f0U,
  0x3d4a1e653d7df9cbU, 0xbd2208b53ceb762fU, 0x3b9cafbe3c3402d7U, 0x3d1647ce3d5bc9d0U,
  0xbda0ecaebdf0e16fU, 0xbc084006bd79a750U, 0xbdbd297ebd76d79dU, 0xbe0e5333bd4ce319U,
  0xbc0101f3bdb1d878U, 0xbdd12236bd83bdeaU, 0xbda15407bde57cf2U, 0xbda91fe3bce457a4U,
  0xbe154254bd84050eU, 0x3caeee3fbdaeff64U, 0xbdbe72d5bdb341ceU, 0xbe025fac3cbbc1b4U,
  0xbdcd072bbd94c60fU, 0x3cc87217bd30ff2aU, 0xbdfcd59dbd61aaa7U, 0x3bb27442bdff68c9U,
  0x3c847f2b3dc88766U, 0xbc330109bd8acc74U, 0x393762dc3d0b244cU, 0x3cf0f27f3d600d05U,
  0x3ddf9986bad2a9e6U, 0x3d81fd833d28521dU, 0xbb986622bd854764U, 0xbd4f8b2b3d4c4105U,
  0xbd4690b33dd846afU, 0x3dcf73b9bd8bfb2cU, 0xbda030d13d317807U, 0x3dd0865fbc19cbc0U,
  0x3d5c38fb3e0e2c72U, 0x3d7a0239bc7c5b62U, 0x3d8134d13d1b19b7U, 0xbd15e2373d3dd29dU,
  0xbbd7ae9f3da8d279U, 0x3da7e151bdc7e49bU, 0xbca0c4143db33695U, 0x3d5e2bed3b817132U,
  0x3c8483b03d8df307U, 0xbd953ff8bdbd18f9U, 0xbd23fe85bd7c3973U, 0x3cc4200bbbaccd08U,
  0x3d264f75bd467a16U, 0xb8a1e358bdcf59c9U, 0xbdb8fdd4bd18ab2eU, 0xbc7fe6e5bd80e662U,
  0xbcaa378c3b98091dU, 0xbd6ff011bc99446cU, 0xbd928559bd0c10a9U, 0x3d33ccc5bd89d051U,
  0xbce325e2bd7db12fU, 0xbb8b4176bd64c4bfU, 0x3c8203cd3d36f766U, 0x3d03e9f1bd3e8ac4U,
  0xbcd266b3bbbe4d5cU, 0xbd0f9082bb48f302U, 0xbdf2dc35bdd9f6bcU, 0xbd9d5eee3d215813U,
  0xbc5d8ab3bd71e28eU, 0x3c3d75a53c89bc6eU, 0xbca3a1893d89d2e7U, 0xbc9470f63d78981eU,
  0x3d31d0183dfef8ebU, 0x3bea03dcbcec7212U, 0x3c5d6d8bbdbda1f7U, 0x3d080f6cbd8ea685U,
  0xbdfe4321bd142c4eU, 0xbc1ffae4bda8f7adU, 0xbd9e06b3bd0b2213U, 0xbd5ae557bdedbe53U,
  0x3cbf55dcbdb0ba44U, 0x3bb7adcb3c7419baU, 0xbda3741dbd365210U, 0xbe0f208cbd0f0f6fU,
  0xbd39cf54bce044d6U, 0x3c82dd6fbdcc2c6cU, 0xbc17ff313d7c530fU, 0xbde6a38bbcb2b257U,
  0xbc5a081dbd41b32aU, 0x3d47b80fbd390f70U, 0xbc34ee023d8d530aU, 0xbe318964bcf36b43U,
  0xbd2d4b7bbc95283bU, 0x3dd96f4dbdf1e3d9U, 0xbd8758273dc6d2feU, 0x3d96e6223d954926U,
  0x3d676c353cd36406U, 0xbd09356dbd935a38U, 0x3d0ce4183dd9e068U, 0xbcfc328b3d9553a8U,
  0xbd7f264f3dd1459cU, 0x3da19b3fbe1a7d26U, 0x3d3f8b603d840500U, 0x3ddc0f683dca72aaU,
  0xbced22583d352a50U, 0xbd3643d1bc300c27U, 0x3d0f3aaf3db6d731U, 0xbb52c2033d10f420U,
  0xbdd0ff0ebbc3c6aeU, 0x3cb34ab8bdba4ea7U, 0xbd195398bc47a3beU, 0xbc38ccc63c73efd4U,
  0xbddf6ed2bdc4ea97U, 0x3db8d9cf3d2cba08U, 0xbd0bb088bca47087U, 0xbd93581e3da1c3afU,
  0xbd86613abd47a95fU, 0xbdad58b8bc85d4cfU, 0x3cd4d427bb45dc76U, 0xbafa96d53c164804U,
  0xbc3d0e9dbda30457U, 0xbda84fe5bcfc16f7U, 0xbd944968bd336b9bU, 0xbd0cd267bd805fccU,
  0x3d44159b3d077a81U, 0xbccdcd8abc0471b5U, 0x3d2e1cbf3d481d95U, 0xbd9b2a56bd4a018fU,
  0x3daaed5c3d3ee9bdU, 0x3d71f0e13d52d682U, 0x3b8955c1bcba181bU, 0x3bf7b2f9bd964a34U,
  0x3c7fb9233b27eeebU, 0x3cc2a5763c414ed4U, 0xbdb14de8bd4d46a5U, 0xbdb04baebd7c406cU,
  0x3d92d7eebc7bfba1U, 0xbc423cf73cf6e5c5U, 0xbd6687f5bdec254aU, 0xbd2b25b0bd9d26ccU,
  0x3b3f942f3dfb6cdeU, 0x3dc46c453cdc4b26U, 0xbcc51bc43dd037bfU, 0x3dcf58403d2df3e4U,
  0xbd53db2e3c17cb5bU, 0x3d34f32b3bcd345bU, 0x3b2b872ebc544612U, 0xbdceece63c4e7f2aU,
  0xbd96976d3c1c1ac0U, 0x3d0416a4bdcfe3beU, 0x3c8be7203de16c32U, 0xbb68e27f3d0445e0U,
  0xbc9726fdbd1e1759U, 0x3d098d64bdc07dddU, 0x3b2c2a94bb8aad95U, 0xbe7db3c63d95cb6aU,
  0xbdb056d93df672a7U, 0xbd890a1fbda61acfU, 0x3d2b66ce3db00aaeU, 0x3d324be73d882e28U,
  0xbca35ff2bcf8d58fU, 0xbd3cff85be03f152U, 0x3b8879933dc6f6f7U, 0xbe1dae1e3c836602U,
  0xbe10777cba873ef3U, 0x3d9f3f8fbc328fe4U, 0x3d9d4386bd0d23d9U, 0x3e06cf66bc01fc90U,
  0x3daab756bb586dd5U, 0x3c1b9d083b42cb6bU, 0x3d8ad12dbc808a8bU, 0xbe09ab13bcf25775U,
  0xbd2f309f3c0c05b9U, 0x3d9a46b9bd139f3aU, 0xbc3604a5bca11426U, 0x3ce05f873e0e666fU,
  0x3d8323a53dc84dd9U, 0xbd0c39353ac95503U, 0x3d01f7273db7a75fU, 0xbd0c2925bd858b49U,
  0x3dc8b2e83cbbc120U, 0x3e0189213d5a2cb4U, 0xbd56cd133de5370cU, 0xb99bc8403da64aa2U,
  0xbc1d2e7e3ce09b4aU, 0x3db6ece43c585417U, 0xbcb16d6a3d982965U, 0xbbfce837bca223cdU,
  0xbd121033bcc1c241U, 0x3d19ca80bd6f8ac7U, 0xbc5f2a43bd052c1aU, 0xbd54e44d3d0db314U,
  0x3de1af033d083861U, 0x3d19fd663de2655bU, 0x3ca897533dc0078cU, 0x3bd931e1bd2b543fU,
  0x3d8cd69b3bfd632dU, 0x3db19f32bda1e6afU, 0x3b37fb393d12940bU, 0x3dc33a593d1a3b6aU,
  0x3de26175bc616d5dU, 0x3deef534bcd7aad0U, 0x3dbed5013d062d58U, 0xbe0b82333da09cd8U,
  0xbc11e89e3df6eb53U, 0x3de428fbbd1df60aU, 0x3cc467cf3d560774U, 0xbcc989f23cbfe453U,
  0x3d8fb0553c5eb6dbU, 0x3de3a5b0bdd83a8cU, 0x3d0c9e253da08fefU, 0xbe63171f3dcbca73U,
  0xbda328dd3d5d12a0U, 0x3d2769f83da6d3ceU, 0xbd48c7463de58a21U, 0x3bf7e68fbaee4522U,
  0x3d1a5cabbd6d2f99U, 0xbb841e8dbd159f85U, 0xbd964da73cef5f98U, 0xbe1860ffbd82c459U,
  0xbd612dd4bcea1f97U, 0x3d0d6cbf3d7f4e83U, 0x3d8c31813dd67591U, 0x3c0952c2bb828be2U,
  0xbce175063d33f059U, 0x3d672b8d3d051749U, 0xbcb658ce3db699b1U, 0xbdc45eb1bd0aa8b9U,
  0x3d2b26123cd6be0dU, 0x3dcbacaf3db1a2beU, 0x3d1c01d23df8a861U, 0x3e02fdcb3d577535U,
  0xbca015be3db3d9feU, 0xbd5b7d223d442a64U, 0x3af4daecbcdb444aU, 0xbd50cd053cea2190U,
  0xbd351687bd4ad19dU, 0xbd8319e03c9e1db0U, 0xbd0da9ddbc3f2ac5U, 0xbe09dc4dbda2825fU,
  0xbd0d04c2bb95c9bdU, 0xbd35b7e23ce7f7deU, 0x3dab209e3db8fedeU, 0xbdc3420c3dc00e59U,
  0xbc6594293d361228U, 0xbd3f353ebd16b8f6U, 0x3c310b803dbea678U, 0x3d1dcb44bd67133bU,
  0x3d23d5ce3dad0338U, 0x3c212fbc3c9b884fU, 0x3d15e82e3dc05ea9U, 0xbe0795e5bd019523U,
  0xbd2ec0c23df71ae1U, 0xbd24fd37bdcef365U, 0x3d7f43353dcea9e2U, 0x3c6e9baf3c82513aU,
  0x3d3f22c6bdcedda4U, 0xbcaa97933d07a7fdU, 0x3dc8cfac3ca10d71U, 0xbd81e9c13c284f2fU,
  0xbd9995e0bcf529f4U, 0x3c62b9f1bdba1b13U, 0x3d7a52b4bbd3c58fU, 0xbd5ad2c33da5f8bcU,
  0x3d256a4bbacd6828U, 0xbc9ffc913d825488U, 0xbccdaf34bd12b92fU, 0xbdd4ee553bc5a862U,
  0x3cf944c93d3af73eU, 0xbd690654bd8be568U, 0x3d4c4a183c7ac8e6U, 0xbbb132913d15c41fU,
  0x3c1468babbdec5eaU, 0x3d773a3ebd9f8612U, 0x3d3c1f54bc5c2dd8U, 0xbe8761dd3d579f62U,
  0x3c7a1bb73d6f8fc4U, 0xbc82b99e3d417f4bU, 0xbd9f98a2bcc69726U, 0x3dbd8a023d1370e2U,
  0x3bec8eb93cb9895dU, 0xbcf52c0dbcddab7fU, 0x3d810bd4bd604349U, 0xbdf0f6a7bcf3c148U,
  0xbdadc5d23e056374U, 0xbc99ea1f3c12d585U, 0x3c5b3a913e0d5be9U, 0xbbc0a4b93e0544cdU,
  0x3d864735bcc79d75U, 0xbd8962863d120bcaU, 0xbcf5214a3d896fc2U, 0xbc4ad176be014c24U,
  0x3d8cd865bd887823U, 0x3b916c91bc334bc7U, 0x3cf4c1c33cbf86d8U, 0x3b053869bd357cd4U,
  0xbdb029ef3c930e38U, 0x3c9a02f13d93d73bU, 0x3d9a476d3d4e787cU, 0xbd77b20e3d8c776bU,
  0xbc94a5843d1c5acfU, 0x3d146b82bd9f707cU, 0x3d66fc753d0e29faU, 0xbda64d253d8ec8a3U,
  0x3d794fb2bd48fb17U, 0x3d7904bdbd66a34eU, 0x3ca125febc5208d0U, 0xbe18362a3d5d486cU,
  0x3de83fc3b9254ad4U, 0xbcd9afc53d19fb56U, 0x3c3ba1733dafbab4U, 0xbc971ee53dd84beeU,
  0x3cd0e697bda303ffU, 0x3d4264cc3de9cc9cU, 0x3c58c14bbc71f452U, 0xbddbedbb3dde561eU,
  0x3d8e6e793deb3b9aU, 0x3de644843c05897dU, 0xbd31fba73d054193U, 0xbcdabc0a3e08d2e6U,
  0x3df8b6873d93b37dU, 0xbd4e0550bd80757eU, 0x3dd47d933ddcf68bU, 0xbe3823633d844a28U,
  0x3c3e32a53d22acb9U, 0x3cfcad45bd88025fU, 0xbce4c3133cfb8380U, 0x3def416e3dc71c44U,
  0x3d128139bd10cb78U, 0xbd97e44fbd31a9c3U, 0x3d7179a2bcde3343U, 0xbe991457bdf7b6c9U,
  0xbdc10c88bcc3b597U, 0x3d89996e3d811b34U, 0x39ced8123d390fe5U, 0x3ddd9f983d1d55b7U,
  0xbd6b25283d9b1b4dU, 0xbd1947b2bd5796e8U, 0xbdae7991bb826877U, 0xbe2257abbd103c12U,
  0xbc8467ab3b8b426aU, 0x3d30687e3d9746b3U, 0xbd63960b3d44eef0U, 0x3e0db4b23bddf3b0U,
  0x3d2760f73d8e68a9U, 0xbcd2bed9bcf779fcU, 0x3ad1f4c33cdf3524U, 0x3d4f03a13af0340dU,
  0xbda97bdabde84945U, 0x3d0a63a0bdca7636U, 0xbde284ecbdbeb17cU, 0xbd8ac86b3c46cfa7U,
  0x3ced99aa3c5b7a50U, 0xbdd04c76bd34b493U, 0xbcd6e0833d1b3b61U, 0xbd308aebbd9d841aU,
  0x3d57ed23bd216eabU, 0xbda833bdbc1f7636U, 0x3a26449fbdda570fU, 0xbe0a2a3dbdecfdf6U,
  0xbd20e8b8bdc68b54U, 0x3cff2f5dbd55a901U, 0xbe043807bd276e38U, 0xbda7931fbcd46410U,
  0x3d574bf3bc42d8f1U, 0xbb021decbc81ad3dU, 0x3d527cd7bcb20580U, 0xbe1a4ce7bdd3840cU,
  0x3cdb6670bd27c180U, 0x3da0ca093c956540U, 0xbd011394bb8bcba9U, 0x3c322817bcc75dacU,
  0xbc6dc51e3d80bc4fU, 0x3cb314823d113332U, 0x3d844a46bd61bc32U, 0xbd1af0b9bcae2ebeU,
  0xbcc10f17bcbe6a24U, 0xbb4348ee3def4674U, 0xba8800d13c73dbd0U, 0xbe14a2d1bc7fab86U,
  0x3da8a901bcd8ec41U, 0xbce762b43dccec84U, 0xbb8d7f99bd22a9c3U, 0x3d1f0a7e3d150275U,
  0x3cfd5ea3bb0c9e5eU, 0xbd2abdedbdf3d798U, 0xbdb8d5debd316e19U, 0x3d41eda8bc66226aU,
  0xbdc93f5cbdacf63fU, 0x3ce25e463d5e0e38U, 0xbd8846b43d1a1824U, 0xbd7d01e3bda73070U,
  0xbd7ff6f0bd4db81bU, 0xbdf493c6bcfa41e3U, 0xbe0e80e73c8d9d57U, 0xbd928c063ce741d2U,
  0xbd18d5bfbd908dc1U, 0x3c0c98c23beb0062U, 0xbb89dd9e3d3adcb9U, 0x3c086fddbcb48d5fU,
  0xbd76b26b3b2e09caU, 0x3cbf0e01bdf183aeU, 0xbbc53feebd0daa82U, 0x3d0a470cbd4f2245U,
  0xbe07422ebdb63f76U, 0xbd1414debdaa375fU, 0xbd1a50d83ca33bd7U, 0xbdf706f13d789d67U,
  0x3c132f563d8af2f5U, 0xbd516624bd1f49b8U, 0xbca2d86bbc6a2830U, 0x3c213900bddb527eU,
  0xbdf295d3bdcd4918U, 0x3c086bd7bd9a3defU, 0xbde5fd1dbdd82fbfU, 0xbd848bbebdba93d2U,
  0xbd397e65bcecc9f0U, 0xbc92aa803d25db31U, 0xbe113c7dbd77e1cbU, 0xbda1369cbd9ae1caU,
  0xbde634423ca16394U, 0x3bc9cb9ebd8bea2dU, 0x3dae27ebbc6f8e3dU, 0x3c9e5ae2bc935b01U,
  0x3e067fcd3d46615bU, 0x3d0f322f3dced9b6U, 0xbdaf024fbd908a37U, 0x3d83957b3dc79e7bU,
  0x3b2b12a33e197e84U, 0x3e2ab403be349581U, 0x3db202033d6c9779U, 0x3d6f02cb3de24899U,
  0x3dba428f3d6417d8U, 0x3d7d1b723db24cdcU, 0x3d0b0a773d010e0fU, 0x3dfa2a5fbe026342U,
  0xbe3263de3dd38a3bU, 0xbd70623ebd3a2d3aU, 0xbde6c1ddbbb58a39U, 0x3d82bc773db16a78U,
  0xbc3c50773d2d4d13U, 0xbe48d4113d1c3a7bU, 0x3c7208e6bd48a11bU, 0x3ce455e5bdd12722U,
  0x3d7d07c13b9e3c81U, 0x3d7bebc43c1bd478U, 0x3c86602a3c745373U, 0xbd078cf4bce47609U,
  0xbd7542cabc8ccd14U, 0xbd99702bbda25cd6U, 0xbc940880bc25476dU, 0xbd30a22fbdbef5f3U,
  0x3d16aab8bc43c873U, 0xbd2252d9bdd8e405U, 0x3d3113243d3a0befU, 0xbb2967fc3d37e59bU,
  0x3b4b8573bdede22fU, 0xbb3f63b3bb8095cbU, 0x3b7eb27fbaf2e241U, 0x3ce87dc63cd63136U,
  0xbde3edf73d70a206U, 0xbd7a8dd9bd4b4ac5U, 0xbc2ab9e4bd2b4830U, 0xbdddaf73bd9c9da4U,
  0x3d3bc9aabd722de3U, 0xbdbb647ebddc391fU, 0x3d928bcbbcf6e60bU, 0x3c5774d0bcce3e02U,
  0xbde59ffb3d3c8bc2U, 0x3d4cbfe5be43c820U, 0xbcaa3f043d055bf5U, 0x3d4f210a3d4684b4U,
  0x3d86efe63d43988fU, 0x3d1b7bbc3d383d75U, 0x3dec7e203d020883U, 0x3d1b8906bd014317U,
  0xbd58c7913d033966U, 0xbd7e7fe9be81dcf9U, 0xbcf77c6a3cd80833U, 0xbde1c8f8bdae172bU,
  0x3d46fd6abe071c9bU, 0xbdcc93cdbc837226U, 0x3dd6d03c3cd19dd4U, 0xbdce1b7f3d3d7ec9U,
  0x3e152afe3d99f002U, 0x3d634aa8bdeabd29U, 0xbe014c5abd69dcf2U, 0xbcf0e5523de7efddU,
  0x3b0a14933d98d503U, 0xbdebd500be119069U, 0x3cad542d3b337420U, 0x3cc953533de5f42dU,
  0x3d5e5a433c92bc56U, 0x3deebdc5bc9a01daU, 0xbd69b04fbd604864U, 0xbd7f3dde3dd2813bU,
  0xbd5a2d3bbcf97575U, 0xbd7afe33bd07a97aU, 0x3c8e63393d27c35aU, 0xbda4a03bbd2d5f54U,
  0x3db94d51bb87b8b0U, 0x3d17ca4ebd803988U, 0xbdf20f8ebd917d12U, 0xbc8964533d33514eU,
  0x3cc3ae53bc43ed9aU, 0x3d34174e3d77a946U, 0x3d54f7073b30ec0cU, 0xbd54c0ba3d429f75U,
  0xbc88d108bd84620bU, 0x3cdc3ae1bd9a7686U, 0x3d057086bcb4d07cU, 0xbc50fd413ceff486U,
  0xbdbf408b3d9747a3U, 0xbac11d553b1c0c10U, 0x3cc1dc8abd9a2302U, 0xbdb3f9a7bc901fbbU,
  0x3d6a07063d4369e1U, 0x3dcca122bdb131b2U, 0x3da1c2583d990820U, 0xbae267c0bcd27ff5U,
  0xbc97bed93d6b5887U, 0x3b42bb24bd913e99U, 0x3dcff963bd0b7fa8U, 0x3daa0bda3cc09b71U,
  0xbdcc297d3d7d2919U, 0x3d897806bd02a1afU, 0x3da95109bd43ab56U, 0x3dcdb879bd60325aU,
  0x3ced3d503d5fc0d8U, 0xbca63be7bdb144f2U, 0x3df7d8833b7145e9U, 0xbe8309823da22276U,
  0xbda053e03c5d0d4eU, 0x3dcf430c3d7c27e0U, 0xbd3a20ca3d83408cU, 0x3c8162c13db13811U,
  0x3d8b940cbd4aeac5U, 0xbbb471febd199bd7U, 0x3d8c1415bd119383U, 0xbe5cc0393dbd06b2U,
  0xbda7fddfbdb9efd7U, 0xbcac877f3c74874dU, 0xbd9bf104bd7906f7U, 0xbc90e8e6bd8b728dU,
  0x3c131c79bca51e14U, 0xbd65161cbc24d20fU, 0xbd8578ff3cf3f35cU, 0x3cb039c4bdae27abU,
  0x3c6bfaa93dc8f280U, 0xbd88f468bd39e470U, 0xbd64c9ce3cc7a97eU, 0xbdb99bfcbce06683U,
  0xbcf5d30d3db5bda2U, 0x3d48e8073d84dd89U, 0x3cc7d456bd45cdc8U, 0xbd9465743d5742e5U,
  0xbdb031923d03d820U, 0x3d0021bdbd9e057eU, 0xbc56fee0bd24f193U, 0x3cf2eefdbdaf878bU,
  0xbba624bbbcf0518aU, 0xbc8388bd3d6aa51dU, 0xbd1cc30fbc7b0066U, 0xbe1e1ec23dd30439U,
  0xbc9bb563bd30d217U, 0x3d0f35673c71eee3U, 0xbdea50c83cdb5c9fU, 0xbcfa74e93cdddaeeU,
  0xbd0624d4bca1bf22U, 0xbdd7876cbdc5ab5eU, 0xbdf5904dbcef3fd2U, 0xbe123c92bda1fad4U,
  0x3cae167fbd1d3afbU, 0xbd02046f3d3d2e55U, 0xbc83ac0abd6d9ea4U, 0xbe1c6b8bbdf4078cU,
  0xbd3d6f99bd0ffa6aU, 0xbcaf1a4e3ca54897U, 0x3d27308bbc8293bdU, 0xbe20f11f3d5c7e20U,
  0xbd80dd273db6bd54U, 0x3d8a2181bd28cf5bU, 0x3bde22c83b1bdcc9U, 0xbd4807a6bcd52cffU,
  0x3e12d47ebd89dc31U, 0x3d5e88da3ce1ae7bU, 0x3c9e1aa2bd607a59U, 0xbe81b0463de78112U,
  0x3c7936bf3d6bc234U, 0xbcb26109bdd2a137U, 0x3db9bb5cbcf8a7b9U, 0xbd14482a3c4133f7U,
  0x3d9049803d815730U, 0xbc8381a5bd259465U, 0x3d9501f73cd3fbaaU, 0xbe02f99ebcb65f9aU,
  0xbcbe1648ba974e15U, 0xbd13c58fbe01c527U, 0xbd1bcc2cbd8dc95eU, 0xbdbb0acb3a25965aU,
  0x3cbcac8cbd20c4f3U, 0xbce00290be0064f0U, 0xbc9d2dec3c587c45U, 0xbca369f1bca43781U,
  0xbd4d89493cd7a4a1U, 0xbd8132883dc461f8U, 0x3c09cdfd3d3e6648U, 0x3bd7d48bbdaa4f78U,
  0x3d756612bccb1635U, 0x3dc5e2793d81d909U, 0x3d73b59e3d0cf755U, 0x3d17e66abd5989e7U,
  0xbdf71348bc5ed77dU, 0x3cc452c0bca244b3U, 0xbcf2fb79bde496bbU, 0x3d89d6a4bd83a29eU,
  0xbda62675bdb87f96U, 0x3db9ca21bbdf7acfU, 0xbd952f3c3d44f9fdU, 0xbdbc4c20bda9c4b7U,
  0xbe21decabdc110c1U, 0xbd074a69bdd99d7cU, 0xbaf67b433c146df9U, 0x3c91d429bd1cbfaeU,
  0xbd4d29eebcdd4859U, 0x3be0a4cdbc9b9919U, 0xbcd5010ebdd3653eU, 0xbd73c7a9bd5aba7dU,
  0xbdbd2c493ce6ac6dU, 0x3d078fb33bd7580bU, 0x3d50e4793d0d2382U, 0x3d144925bdd11fbcU,
  0xbc006aa93d47e909U, 0xbd36940ebc9a51a4U, 0xbd958340bde13a73U, 0xbdbe5762bd428939U,
  0x3b8f0c7c3dce9860U, 0x3db4195abd109b0cU, 0x3d932882bcff828aU, 0xbd004c763d65b294U,
  0xbb90e176bcea04baU, 0x3d1647553d888b06U, 0x3c3be4223b97ef19U, 0xbdc64415bbb0658cU,
  0x3c94d96a3c50de8bU, 0x3d5c9278bd25014eU, 0x3a4cfae53c55b40aU, 0x3daa8a693df87f7dU,
  0x3d697c68bcabc810U, 0xbd4b8dfc3d0c4452U, 0x3d4378993e121e56U, 0xbe6c659a3c74c141U,
  0xbce2e62e3b5aa64fU, 0xbdb02332be03f43eU, 0xbe02e3243da9af0dU, 0xbba9275cbad90f2fU,
  0x3d6db3613ae401ffU, 0x3b0dec19bda4ef5dU, 0xbb88c7103c0a05beU, 0x3a279938bd17b46fU,
  0xbdfec880bba293adU, 0xbd96982abd737a32U, 0x3d6f840fbd5ecbaeU, 0x3d63c9123c04e3e0U,
  0x3c0efe19bc5a9e14U, 0xbd1a97153d2a5f9bU, 0x3def6081bd480f95U, 0xbd8ce30cbdeb59aaU,
  0xbd9dcef4bd8867f6U, 0xbde432b7bc256792U, 0xbc683ac83decff62U, 0x3aa995a4bb65e861U,
  0x3ce349d93d24c24aU, 0xbe29b3993d367605U, 0x3df844e13d015711U, 0xbdfd15d1bb82c1f5U,
  0xbe0331f4bda1fffcU, 0xbd8504123cae0311U, 0xbdbb0304bd0b7b20U, 0x3dc290403c8fcbb2U,
  0x3c01304bbd2a6a7bU, 0xbddf8381bcaf3898U, 0x3bf4128cbdb36c77U, 0xbde9fa7ebd05db0dU,
  0xbd9256d93b7af428U, 0xba68e4e5bce75bcfU, 0xbcb3431fbdd71350U, 0xbd965e64bddc78b7U,
  0xbd704112bad9cc39U, 0xbc5c5c43bda78b9bU, 0xbd5927e7bda51355U, 0x3d09208dbd409837U,
  0x3d3c9edcbd1b32c8U, 0xbd607fddbc57f060U, 0x3c73591ebd9bd94aU, 0x3c5461dfbcebb99cU,
  0x3d92ba5f3c546b52U, 0x3d4681c93dd287d0U, 0xbd7ded4abcf0f408U, 0xbe716af2bcbfd69eU,
  0x3d4e1a8a3da2a2d0U, 0x3db239c33bd7b95eU, 0x3dd77dd53db0ac94U, 0xbc8417843c57fb90U,
  0x3da089eb3d95bc5aU, 0x3d36d638bb3329a4U, 0x3a344e10bcb66098U, 0xbda0b3f63d80d2ddU,
  0x3d53ec6e3d10e97fU, 0x3d789974bdea09a7U, 0x3d92594f3dff75bcU, 0x3d06920d3e075b4dU,
  0x3d0d0f873e2a8849U, 0xbd1c46ec3d80b59eU, 0x3d836ee8bbf159c8U, 0x3d44cd13bc6f4703U,
  0x3deace3b3df13258U, 0x39f42632bd6c0d43U, 0xbe05f0f13dc015e6U, 0x3d862476bc83514aU,
  0xbbaea66fbace5f14U, 0xbe0d6764bd650a31U, 0x3dc376603dd19e0bU, 0xbdb5b6b23cdb32e9U,
  0x3ddc844f3da35891U, 0x3de6322b3df94b58U, 0xbc40adf13c201b96U, 0x3db283d3bd48d433U,
  0x3dc599a939da2b59U, 0xbdf038d7be0030e6U, 0x3cd0a98cbcafc727U, 0xbe4553b03d4d8d9eU,
  0xbd665d913cecbca0U, 0x3cbf12b93d930dbeU, 0x3cf31c5c3c9c4c3bU, 0xbb9d46bf3dd73451U,
  0xbb8bdf593da7e8bdU, 0xbd472abebdd036eaU, 0x3d8c0c85bd6b011eU, 0xbd7f6a0b3d185b40U,
  0xbd9e3f5cbd3e3d10U, 0x3908381bbd8ee83bU, 0xbe26d0893bce8ffdU, 0xbccdf047bc408eacU,
  0xbd73e265bd9dce90U, 0xbe02d4f7bdc41bfaU, 0xbe363501bdba18a7U, 0xbcb379b4be0d90afU,
  0xbda415d1be35089fU, 0xbda07aa63c356461U, 0xbda13974bb3c6e0aU, 0xbe14adaabdb24bdeU,
  0xbc134b873d0525bcU, 0xbe01c135bd51e825U, 0xbcc238713b3d2affU, 0x3d64ff373cf3198cU,
  0x3d96e9aebc660bfeU, 0xbd560fc1bd4cd39bU, 0x3d0a8582bd49ad63U, 0xbe1f71c2bd235849U,
  0x3daab039bd8ac89fU, 0x3d009401bc6ea874U, 0xbd68c90fbb7a31b0U, 0x3b85e11d3dadb983U,
  0xbc8ff1333c405055U, 0x3d0f8883be064202U, 0x3da24601be210167U, 0x3d36e0693b556394U,
  0x3d1d55cf3dfee5fcU, 0x3c49b0eabcdf6858U, 0xbd8cfb233e074aaeU, 0xbda184e1bbd5646aU,
  0x3d14096a3d8487b3U, 0x3cc6d04c3d2bf39bU, 0x3ce59febbcaf7806U, 0x3d737e193dfc8242U,
  0x3d18de413adf5a80U, 0xbc93a179bdacc9f2U, 0xbbc023ab3dde1a3cU, 0x3c46e24dbb99cee6U,
  0x3d821b953d58624fU, 0xbc9b6135bcd22d87U, 0xbc864d77bd2ae320U, 0x3c283c94bcc5aacfU,
  0xbdbf82213d70f3acU, 0xbdd38b5fbd446addU, 0x3c9a862c3d10bd36U, 0x3cf02d56bda168daU,
  0xbc251190bd937feeU, 0xbd603995bda512d3U, 0xbc5c54a4bda6c5dbU, 0x3cd187edbdbc8a40U,
  0x3c9402be3d61911bU, 0x3d5692ed3d14ee29U, 0x3cc70ff7bcd6ee6cU, 0x3b52d11cbd915137U,
  0x3d0283423d372dadU, 0x3d0c9c323e156ce3U, 0x3db448553cb6f12cU, 0x3d0d1f3a3ce5518aU,
  0x3db288733e08b769U, 0x3e2c99183e0d4ad0U, 0x3dd90ab2bc1bd5ebU, 0x3c855b523da8ff44U,
  0x3de512283cda54bcU, 0xbd0cf6213cc0794eU, 0x3d9d8a783dca0b85U, 0x3d854dd83c86ba19U,
  0xbc5e3d923c903dffU, 0x3d8f10893e0d84a6U, 0x3df505693dce41b2U, 0x3d65c5c23d7731fdU,
  0xbcfb7430bc213c8dU, 0xbcb265553ce0698bU, 0x3c0ef0e73c22cd0bU, 0x3d1f1f513d863e00U,
  0xbd3267c7bc568271U, 0xbcc6519f3ded0b06U, 0xbd8300a23c5d4a5aU, 0xbc8521fcbd070e90U,
  0x3d30a3cf3daaeb76U, 0x3db47a0a3da434caU, 0x3e16da93bc0f0f4aU, 0x3a88a360bcaa2c4dU,
  0x3dc69ec33b91d524U, 0x3e01f1fa3dcb558aU, 0x3ddef2d73c9278e5U, 0xbc1171173cd11fe8U,
  0x3da48d9e3d0f2d67U, 0x3d40794e3d9ef80aU, 0x3a97f85c3db17defU, 0x3d5c0fe33d36fc28U,
  0x3da094a1bd509609U, 0xbdfb29753cfae5f5U, 0xbd280e0f3dadb089U, 0xbbb27eba3ddde175U,
  0x3d1aa6b2bd91e1f0U, 0xbd250a823e31f513U, 0xbd134715bd59da21U, 0xbd347876bded25ffU,
  0xbddb0774bd83ee3cU, 0x3db7aaecba7b451eU, 0xbdfc89abbe09e784U, 0x3d3122023cd3d5e7U,
  0x3d3dffb33cf2668cU, 0x3dd3f8003dc5e1b7U, 0x3e004248bdec5825U, 0xbc32b9e8ba3ee4afU,
